#ifndef MNIST_MODEL_DATA_H_
#define MNIST_MODEL_DATA_H_

const unsigned char mnist_quantized_model_tflite_data[] = {
    0x20, 0x00, 0x00, 0x00, 0x54, 0x46, 0x4c, 0x33, 0x00, 0x00, 0x00, 0x00, 0x14, 0x00, 0x20, 0x00, 0x1c, 0x00, 0x18, 0x00, 0x14, 0x00, 0x10, 0x00, 0x0c, 0x00, 0x00, 0x00, 0x08, 0x00, 0x04, 0x00, 0x14, 0x00, 0x00, 0x00, 0x1c, 0x00, 0x00, 0x00, 0x94, 0x00, 0x00, 0x00, 0xec, 0x00, 0x00, 0x00, 0x14, 0x1b, 0x00, 0x00, 0x24, 0x1b, 0x00, 0x00, 0xac, 0x21, 0x00, 0x00, 0x03, 0x00, 0x00, 0x00, 0x01, 0x00, 0x00, 0x00, 0x10, 0x00, 0x00, 0x00, 0x00, 0x00, 0x0a, 0x00, 0x10, 0x00, 0x0c, 0x00, 0x08, 0x00, 0x04, 0x00, 0x0a, 0x00, 0x00, 0x00, 0x0c, 0x00, 0x00, 0x00, 0x1c, 0x00, 0x00, 0x00, 0x38, 0x00, 0x00, 0x00, 0x0f, 0x00, 0x00, 0x00, 0x73, 0x65, 0x72, 0x76, 0x69, 0x6e, 0x67, 0x5f, 0x64, 0x65, 0x66, 0x61, 0x75, 0x6c, 0x74, 0x00, 0x01, 0x00, 0x00, 0x00, 0x04, 0x00, 0x00, 0x00, 0x94, 0xff, 0xff, 0xff, 0x09, 0x00, 0x00, 0x00, 0x04, 0x00, 0x00, 0x00, 0x07, 0x00, 0x00, 0x00, 0x64, 0x65, 0x6e, 0x73, 0x65, 0x5f, 0x37, 0x00, 0x01, 0x00, 0x00, 0x00, 0x04, 0x00, 0x00, 0x00, 0xde, 0xe4, 0xff, 0xff, 0x04, 0x00, 0x00, 0x00, 0x0f, 0x00, 0x00, 0x00, 0x66, 0x6c, 0x61, 0x74, 0x74, 0x65, 0x6e, 0x5f, 0x33, 0x5f, 0x69, 0x6e, 0x70, 0x75, 0x74, 0x00, 0x02, 0x00, 0x00, 0x00, 0x34, 0x00, 0x00, 0x00, 0x04, 0x00, 0x00, 0x00, 0xdc, 0xff, 0xff, 0xff, 0x0c, 0x00, 0x00, 0x00, 0x04, 0x00, 0x00, 0x00, 0x13, 0x00, 0x00, 0x00, 0x43, 0x4f, 0x4e, 0x56, 0x45, 0x52, 0x53, 0x49, 0x4f, 0x4e, 0x5f, 0x4d, 0x45, 0x54, 0x41, 0x44, 0x41, 0x54, 0x41, 0x00, 0x08, 0x00, 0x0c, 0x00, 0x08, 0x00, 0x04, 0x00, 0x08, 0x00, 0x00, 0x00, 0x0b, 0x00, 0x00, 0x00, 0x04, 0x00, 0x00, 0x00, 0x13, 0x00, 0x00, 0x00, 0x6d, 0x69, 0x6e, 0x5f, 0x72, 0x75, 0x6e, 0x74, 0x69, 0x6d, 0x65, 0x5f, 0x76, 0x65, 0x72, 0x73, 0x69, 0x6f, 0x6e, 0x00, 0x0d, 0x00, 0x00, 0x00, 0x24, 0x1a, 0x00, 0x00, 0x1c, 0x1a, 0x00, 0x00, 0x04, 0x1a, 0x00, 0x00, 0xcc, 0x19, 0x00, 0x00, 0x6c, 0x19, 0x00, 0x00, 0x3c, 0x19, 0x00, 0x00, 0xac, 0x00, 0x00, 0x00, 0xa4, 0x00, 0x00, 0x00, 0x9c, 0x00, 0x00, 0x00, 0x94, 0x00, 0x00, 0x00, 0x8c, 0x00, 0x00, 0x00, 0x6c, 0x00, 0x00, 0x00, 0x04, 0x00, 0x00, 0x00, 0x8e, 0xe5, 0xff, 0xff, 0x04, 0x00, 0x00, 0x00, 0x58, 0x00, 0x00, 0x00, 0x0c, 0x00, 0x00, 0x00, 0x08, 0x00, 0x0e, 0x00, 0x08, 0x00, 0x04, 0x00, 0x08, 0x00, 0x00, 0x00, 0x10, 0x00, 0x00, 0x00, 0x28, 0x00, 0x00, 0x00, 0x00, 0x00, 0x06, 0x00, 0x08, 0x00, 0x04, 0x00, 0x06, 0x00, 0x00, 0x00, 0x04, 0x00, 0x00, 0x00, 0x01, 0x00, 0x00, 0x00, 0xeb, 0x03, 0x00, 0x00, 0x00, 0x00, 0x0a, 0x00, 0x10, 0x00, 0x0c, 0x00, 0x08, 0x00, 0x04, 0x00, 0x0a, 0x00, 0x00, 0x00, 0x02, 0x00, 0x00, 0x00, 0x02, 0x00, 0x00, 0x00, 0x04, 0x00, 0x00, 0x00, 0x06, 0x00, 0x00, 0x00, 0x32, 0x2e, 0x31, 0x35, 0x2e, 0x30, 0x00, 0x00, 0xf2, 0xe5, 0xff, 0xff, 0x04, 0x00, 0x00, 0x00, 0x10, 0x00, 0x00, 0x00, 0x31, 0x2e, 0x31, 0x34, 0x2e, 0x30, 0x00, 0x00, 0x00, 0x00, 0x00, 0x00, 0x00, 0x00, 0x00, 0x00, 0xd4, 0xe0, 0xff, 0xff, 0xd8, 0xe0, 0xff, 0xff, 0xdc, 0xe0, 0xff, 0xff, 0xe0, 0xe0, 0xff, 0xff, 0x1e, 0xe6, 0xff, 0xff, 0x04, 0x00, 0x00, 0x00, 0x80, 0x18, 0x00, 0x00, 0xf4, 0xf3, 0x04, 0xfd, 0x02, 0x08, 0xf1, 0xfc, 0xf6, 0xf2, 0x08, 0xf5, 0xe7, 0xf2, 0x10, 0x08, 0x05, 0x04, 0x09, 0x0d, 0xfe, 0x02, 0xf1, 0xf6, 0x0b, 0x0f, 0x0b, 0x08, 0x0f, 0xfb, 0xf6, 0x07, 0xf3, 0xe5, 0xdb, 0xd7, 0xe7, 0xe3, 0xc8, 0xd5, 0xc1, 0xdf, 0x00, 0xdd, 0xf7, 0xe9, 0xc4, 0xc6, 0xdb, 0xdf, 0xf2, 0xf7, 0xfa, 0x07, 0xfa, 0x09, 0x0d, 0x0c, 0x0a, 0xe8, 0xf6, 0xee, 0xd8, 0xbf, 0xb9, 0xc0, 0xc4, 0xcf, 0xcb, 0xde, 0xda, 0xf5, 0x08, 0xfc, 0xf4, 0xf3, 0xe4, 0xc8, 0xd5, 0xba, 0xfd, 0x1f, 0xf9, 0x02, 0x09, 0x08, 0xee, 0xd9, 0xf7, 0xf3, 0xd4, 0xdf, 0xd8, 0xb1, 0xc8, 0xca, 0xea, 0xd8, 0xe0, 0xfa, 0xed, 0x09, 0x0c, 0x09, 0x09, 0x14, 0xf8, 0xde, 0xd5, 0xf0, 0xe0, 0x0f, 0x04, 0x11, 0x08, 0x06, 0xf5, 0x0a, 0x10, 0x14, 0xf5, 0xfd, 0x02, 0x0d, 0x21, 0x16, 0x19, 0x21, 0x23, 0x17, 0x18, 0x0e, 0x02, 0x03, 0xeb, 0xee, 0x1c, 0x07, 0xf0, 0xe0, 0x00, 0xf6, 0xeb, 0x1c, 0x05, 0x25, 0x30, 0x1a, 0x0b, 0x2b, 0x18, 0x13, 0xff, 0x04, 0x11, 0x13, 0x27, 0x32, 0x17, 0x07, 0x0c, 0xf8, 0x0d, 0x0c, 0xf9, 0x1f, 0xf8, 0xf7, 0x09, 0x13, 0xf0, 0xf0, 0x16, 0x2b, 0x33, 0x15, 0x23, 0x19, 0x12, 0x0b, 0xf7, 0xec, 0xec, 0xec, 0xed, 0xf8, 0xf4, 0x01, 0xfc, 0x09, 0x0d, 0x2a, 0x3b, 0x30, 0x36, 0xfe, 0xf7, 0x24, 0xe8, 0x12, 0x33, 0x3f, 0x32, 0x2f, 0x25, 0x1d, 0x06, 0xf9, 0xf4, 0xd9, 0xe9, 0xde, 0xe2, 0xe6, 0xf9, 0xf8, 0xfc, 0x09, 0x26, 0x29, 0x2c, 0x4c, 0x1e, 0xef, 0x07, 0x0c, 0xff, 0x2f, 0x35, 0x2f, 0x1c, 0x17, 0x00, 0x0b, 0x0e, 0x00, 0xfa, 0xe3, 0xd6, 0xe6, 0xf8, 0x00, 0x0b, 0x17, 0x20, 0x18, 0x11, 0x22, 0x47, 0x67, 0x44, 0x27, 0x0a, 0xf7, 0x15, 0x08, 0x2d, 0x15, 0x06, 0x0d, 0x0b, 0x08, 0x00, 0xf3, 0xf7, 0xef, 0xcb, 0xed, 0x0f, 0x1b, 0x11, 0x15, 0x21, 0x19, 0x26, 0x0b, 0x35, 0x7b, 0x42, 0x18, 0xfa, 0xe6, 0x0e, 0x1c, 0x24, 0x0a, 0xfb, 0xfa, 0xf4, 0x07, 0xec, 0xed, 0xf1, 0xee, 0xe1, 0xf6, 0x13, 0x08, 0x14, 0x1d, 0x01, 0x03, 0x14, 0xec, 0x14, 0x5b, 0x35, 0x1b, 0xf7, 0xee, 0x0d, 0x31, 0xfd, 0xf5, 0xf2, 0xef, 0xf4, 0xfe, 0x05, 0x09, 0x13, 0xee, 0xd8, 0xf1, 0x08, 0x0a, 0xfa, 0x05, 0xe1, 0xdc, 0xd4, 0xc0, 0xf1, 0x3a, 0x41, 0x08, 0x0b, 0xea, 0x08, 0xfa, 0xf1, 0xed, 0xf6, 0xfe, 0xf5, 0x02, 0x08, 0x1f, 0x2b, 0x08, 0xe5, 0xff, 0x04, 0xf4, 0xf5, 0xfd, 0xe0, 0xd4, 0xb5, 0xac, 0xc8, 0x00, 0x32, 0xf4, 0xff, 0x05, 0x0c, 0xf8, 0xdd, 0xee, 0xf1, 0x02, 0xff, 0x1b, 0x1c, 0x2f, 0x2b, 0x1d, 0xe8, 0x02, 0xf9, 0x08, 0x08, 0x02, 0xfe, 0xe4, 0xd6, 0xbe, 0xd0, 0xf9, 0x1d, 0x0d, 0x19, 0x14, 0x15, 0xf0, 0xfc, 0x01, 0xf1, 0xfa, 0x13, 0x0b, 0x14, 0x20, 0x2d, 0x1d, 0xff, 0x03, 0x0b, 0x0a, 0x0a, 0x08, 0x01, 0xfb, 0xee, 0xe9, 0xe4, 0x09, 0x37, 0x00, 0x14, 0x11, 0x2a, 0x0e, 0x02, 0x08, 0x0c, 0x08, 0x0c, 0x0d, 0x12, 0x18, 0x20, 0x2b, 0x0c, 0x1a, 0x1a, 0x06, 0x0d, 0x17, 0xf3, 0x0a, 0xfc, 0x06, 0x03, 0xfb, 0x39, 0x24, 0xe6, 0x14, 0x18, 0x22, 0x09, 0xfd, 0x10, 0xf0, 0x04, 0xf9, 0xea, 0xf2, 0x27, 0x25, 0x1e, 0x0f, 0x0b, 0x20, 0x1b, 0x18, 0x0c, 0x05, 0x14, 0x12, 0x13, 0xe4, 0x15, 0x22, 0xfa, 0x16, 0x33, 0x33, 0x31, 0x1d, 0x1d, 0xf7, 0xed, 0xd4, 0xd7, 0xe2, 0x00, 0x14, 0x02, 0x1e, 0x22, 0x1d, 0x12, 0x12, 0x00, 0x17, 0xfc, 0x1f, 0x0c, 0xd2, 0xfc, 0xeb, 0xd9, 0x1a, 0x1c, 0x47, 0x32, 0x3e, 0x19, 0x02, 0xf8, 0xe6, 0xd1, 0xd8, 0xf2, 0x08, 0x11, 0x1c, 0x25, 0x18, 0x0f, 0xfc, 0x0f, 0x01, 0x07, 0x0a, 0x1e, 0xd5, 0xfb, 0x17, 0x0a, 0x11, 0x21, 0x3c, 0x40, 0x3d, 0x1b, 0x01, 0xf8, 0xe2, 0xf1, 0xda, 0xf2, 0xe7, 0xff, 0x06, 0x0c, 0x14, 0x17, 0x03, 0xf9, 0x0a, 0x11, 0x1f, 0x1c, 0xf9, 0x1e, 0x23, 0x0c, 0x18, 0x24, 0x46, 0x33, 0x2e, 0x24, 0x16, 0x09, 0xf5, 0xe0, 0xea, 0xee, 0xf0, 0xed, 0x05, 0x09, 0x17, 0x0f, 0x02, 0x08, 0x15, 0x1c, 0x32, 0x0e, 0xec, 0x0d, 0x08, 0xe6, 0x01, 0x24, 0x39, 0x30, 0x12, 0x27, 0x0d, 0xec, 0xee, 0xec, 0xed, 0xed, 0xe9, 0xf1, 0x09, 0x00, 0x05, 0x01, 0x21, 0x1b, 0x19, 0x2d, 0x1d, 0xe4, 0xcd, 0x17, 0x01, 0xf3, 0xf9, 0x1e, 0x26, 0x21, 0xff, 0x0c, 0xfd, 0xf4, 0xfb, 0x02, 0xff, 0xf4, 0x01, 0xfa, 0xf9, 0xff, 0x21, 0x26, 0x29, 0x27, 0x1e, 0x1d, 0xfe, 0xf9, 0xe2, 0x15, 0xed, 0x04, 0xf7, 0x2d, 0x4b, 0x48, 0xfd, 0xf8, 0x0c, 0x10, 0x17, 0x10, 0x18, 0x08, 0x06, 0x17, 0x0a, 0x15, 0x19, 0x17, 0x1d, 0x17, 0x04, 0xe8, 0xf1, 0xf1, 0x05, 0x2c, 0xf7, 0x01, 0xfb, 0x05, 0x33, 0x10, 0xec, 0x06, 0x05, 0x10, 0x28, 0x22, 0x27, 0x1f, 0x2b, 0x26, 0x10, 0x14, 0xff, 0x03, 0xf8, 0xdd, 0xd8, 0xe2, 0xd8, 0xf6, 0x17, 0x12, 0x0a, 0x04, 0xf4, 0x02, 0x1d, 0xf2, 0xd3, 0xfb, 0xfe, 0xf0, 0x07, 0x00, 0x04, 0xf8, 0xfc, 0x00, 0xed, 0xe9, 0xe9, 0xda, 0xe7, 0xd3, 0xbd, 0xeb, 0xec, 0xfd, 0xe9, 0x09, 0x0b, 0xfe, 0x0d, 0x05, 0x01, 0xe5, 0xcc, 0xb1, 0xbb, 0xc2, 0xa5, 0xad, 0xac, 0xa7, 0x9c, 0x95, 0xab, 0xc2, 0xc5, 0xb9, 0xde, 0xd4, 0xd3, 0xf8, 0x01, 0xf0, 0x07, 0xf9, 0xfb, 0x01, 0xf7, 0x07, 0xf2, 0x06, 0x02, 0xf6, 0xeb, 0xea, 0xde, 0xd4, 0xe5, 0xd3, 0xec, 0xa4, 0xbc, 0xe5, 0xe3, 0xdd, 0xe2, 0xe1, 0xd1, 0xeb, 0x01, 0x0c, 0xfa, 0xfd, 0x0a, 0xf6, 0x06, 0x01, 0xfa, 0x08, 0xf4, 0x01, 0x04, 0x0f, 0xf6, 0x03, 0xf6, 0x10, 0x02, 0xff, 0xff, 0x0c, 0xfd, 0x01, 0x01, 0xfa, 0xf5, 0x00, 0x05, 0xfb, 0x0b, 0xfd, 0x0a, 0xf7, 0x07, 0x03, 0xfe, 0x06, 0xf0, 0xf8, 0xe4, 0x0b, 0xf9, 0xfc, 0x13, 0x1a, 0x05, 0x07, 0x0e, 0x30, 0x1c, 0x09, 0xf3, 0x00, 0x01, 0x0a, 0x0f, 0xf1, 0xfc, 0xfd, 0x02, 0x01, 0x08, 0x0c, 0x12, 0x0f, 0xfe, 0xe8, 0xeb, 0xfc, 0x13, 0x1d, 0x20, 0x13, 0x03, 0x15, 0x07, 0x13, 0xfc, 0x12, 0x00, 0xf1, 0x00, 0x02, 0x1f, 0x1d, 0x13, 0x0f, 0xf8, 0x0c, 0xf3, 0x00, 0x10, 0xe2, 0xee, 0xdb, 0xf3, 0x1c, 0x23, 0x29, 0x21, 0x26, 0x24, 0x23, 0x1f, 0x24, 0x24, 0x00, 0x07, 0xf0, 0xf0, 0xfd, 0xd8, 0xfc, 0x1c, 0x1f, 0x09, 0xf6, 0xf5, 0xf6, 0xdc, 0xcc, 0xef, 0x07, 0x06, 0x03, 0x08, 0x1f, 0x10, 0x12, 0x14, 0x02, 0x11, 0x11, 0x0e, 0x16, 0x03, 0x0a, 0x08, 0xf9, 0x18, 0xeb, 0x10, 0x02, 0x11, 0xfe, 0x07, 0x05, 0xfd, 0xe8, 0xe8, 0x01, 0x0b, 0x07, 0x1b, 0x1b, 0x11, 0x1c, 0x0e, 0x21, 0x14, 0x21, 0x26, 0x1d, 0x17, 0x09, 0x0d, 0x13, 0x0d, 0xff, 0xe2, 0xe3, 0x16, 0x0f, 0xfa, 0x10, 0xfd, 0xfa, 0xf5, 0x08, 0x0b, 0xff, 0x04, 0x12, 0x06, 0x0c, 0x0d, 0x16, 0x19, 0x11, 0x11, 0x22, 0x04, 0x10, 0x02, 0x0a, 0xe9, 0xd7, 0xcb, 0xed, 0xfb, 0x0d, 0x0b, 0x21, 0xf7, 0xef, 0xe1, 0x13, 0x04, 0xff, 0xfd, 0x0e, 0x0c, 0x17, 0x22, 0x1f, 0x08, 0x15, 0x00, 0x0a, 0xf8, 0xf3, 0xfd, 0x07, 0xf2, 0xc9, 0xce, 0xf8, 0x0f, 0x22, 0x1f, 0x0a, 0xea, 0xf8, 0xf9, 0xfa, 0xfe, 0xf7, 0x13, 0x10, 0x09, 0x00, 0xfc, 0x21, 0x29, 0x0f, 0x16, 0x04, 0x0a, 0x0c, 0xfd, 0xfe, 0x07, 0xdd, 0xca, 0xd9, 0xe0, 0x09, 0xfd, 0x09, 0xea, 0xdf, 0x10, 0xf6, 0xf3, 0xf4, 0x01, 0x1a, 0xf4, 0x02, 0xf9, 0x03, 0x12, 0x1f, 0x06, 0x10, 0x08, 0x10, 0xee, 0xea, 0xf9, 0xe9, 0xbd, 0xca, 0xf3, 0x0b, 0x00, 0x13, 0x08, 0xdf, 0xff, 0x08, 0xec, 0xec, 0xe6, 0xd5, 0xf0, 0xe2, 0xe8, 0xf2, 0xe6, 0xf8, 0x04, 0x12, 0xf9, 0x00, 0xff, 0xee, 0xfd, 0xff, 0xcf, 0xca, 0xf7, 0xfe, 0x0c, 0xf5, 0xe9, 0xde, 0xdc, 0xd8, 0xd6, 0xd7, 0xdc, 0xbd, 0xdc, 0xd2, 0xd9, 0xb0, 0xb9, 0xd6, 0xd6, 0xec, 0x14, 0x07, 0x00, 0x04, 0xf7, 0xef, 0xc0, 0xcf, 0xdf, 0x05, 0xf7, 0xfd, 0xf4, 0xc3, 0xd1, 0xd1, 0xc0, 0xcb, 0xdf, 0xe2, 0xf3, 0xf2, 0xe5, 0xb7, 0xae, 0xb5, 0xd9, 0xf4, 0x03, 0xf0, 0xed, 0x03, 0xf6, 0x16, 0xec, 0xea, 0x06, 0x0c, 0xf1, 0x0b, 0xf7, 0xd4, 0xd4, 0xc5, 0xdb, 0xf1, 0xf1, 0x08, 0x11, 0xfd, 0xe6, 0xdc, 0xbc, 0xb9, 0xd3, 0xe2, 0xe6, 0xf1, 0xf9, 0x0a, 0x21, 0x1d, 0x1b, 0x32, 0x25, 0x03, 0xda, 0xe6, 0xeb, 0xef, 0xef, 0x06, 0x19, 0x10, 0x17, 0x16, 0x0c, 0xff, 0xeb, 0xdb, 0xbf, 0xd1, 0xe3, 0xf8, 0xfa, 0x07, 0x05, 0x11, 0x2e, 0x2c, 0x37, 0x42, 0x20, 0x15, 0xf6, 0xf5, 0x05, 0x0f, 0x2c, 0x23, 0x1f, 0x27, 0x1b, 0x21, 0x1c, 0xf5, 0xfd, 0xef, 0xdc, 0xdf, 0xdd, 0xfc, 0xf8, 0x06, 0x0f, 0x0d, 0x15, 0x1c, 0x37, 0x3d, 0x2e, 0xf2, 0x02, 0x01, 0x27, 0x26, 0x3c, 0x23, 0x1e, 0x0e, 0x20, 0x1f, 0x0a, 0x07, 0xfd, 0xea, 0xe1, 0xdf, 0x0e, 0x0b, 0x15, 0x1b, 0x1f, 0x1f, 0x0b, 0x28, 0x52, 0x51, 0x2a, 0xfe, 0xe9, 0x09, 0x10, 0x22, 0x3a, 0x1b, 0x19, 0x00, 0x0b, 0x23, 0x13, 0x05, 0xf9, 0xe5, 0xf1, 0x03, 0x19, 0x23, 0x29, 0x15, 0x0d, 0x15, 0x0d, 0x0e, 0x50, 0x39, 0x36, 0x07, 0x06, 0xff, 0x08, 0x2d, 0x2c, 0x16, 0x0e, 0x10, 0x17, 0x19, 0x11, 0x0d, 0xfb, 0xf3, 0x01, 0x11, 0x1e, 0x25, 0x14, 0x1c, 0x21, 0x26, 0x12, 0x39, 0x51, 0x1d, 0x14, 0xf2, 0x15, 0x04, 0x08, 0x35, 0x24, 0x15, 0x1f, 0x21, 0x0d, 0x27, 0x31, 0x23, 0x13, 0x05, 0x20, 0x1e, 0x25, 0x18, 0x08, 0x16, 0x23, 0x27, 0x1a, 0x2a, 0x36, 0x19, 0x1b, 0xf6, 0x0a, 0x03, 0x16, 0x27, 0x34, 0x22, 0x1e, 0x2b, 0x29, 0x2b, 0x33, 0x2d, 0x1f, 0x18, 0x17, 0x1f, 0x28, 0x22, 0x26, 0x16, 0x15, 0x29, 0x28, 0x19, 0x2d, 0x1d, 0xef, 0xf1, 0x03, 0x02, 0x27, 0x1a, 0x1d, 0x0e, 0x0a, 0x0b, 0x19, 0x2f, 0x29, 0x22, 0x20, 0x17, 0x1a, 0x15, 0x12, 0x1a, 0x1f, 0x13, 0x24, 0x25, 0x31, 0x1e, 0x2e, 0x29, 0xfe, 0x04, 0x08, 0x11, 0x0c, 0x08, 0x0b, 0x0c, 0x0d, 0x19, 0x17, 0x14, 0x10, 0x1a, 0x12, 0x08, 0x0d, 0x11, 0x16, 0x15, 0x2f, 0x29, 0x21, 0x30, 0x18, 0x26, 0x02, 0xfd, 0x00, 0xfb, 0x06, 0xf3, 0xf2, 0xfc, 0x0a, 0x0f, 0x0c, 0x04, 0x0d, 0x14, 0x18, 0x15, 0x01, 0xff, 0xfe, 0xf7, 0x0d, 0x0f, 0x18, 0x1f, 0x27, 0x3a, 0x0d, 0x19, 0x0e, 0xf2, 0x00, 0xf7, 0xf2, 0xe3, 0xe3, 0xf0, 0xe0, 0xd9, 0xed, 0x0d, 0x05, 0xf2, 0xfc, 0x0e, 0xfa, 0x0c, 0xf8, 0xe7, 0xee, 0xf7, 0xe6, 0xe9, 0xf0, 0x09, 0x0c, 0x28, 0x3a, 0x18, 0xf8, 0x0a, 0x0c, 0x04, 0xf0, 0xdf, 0xbc, 0xb4, 0x99, 0x9c, 0xa8, 0x9f, 0xb4, 0xc3, 0xb9, 0xae, 0xa4, 0xab, 0xa4, 0xb0, 0xb6, 0xd1, 0xb7, 0xca, 0xc5, 0xcb, 0x14, 0x23, 0x08, 0x06, 0x09, 0x0e, 0x0c, 0x05, 0xfd, 0xf3, 0xcc, 0xd8, 0xbc, 0xc2, 0xbf, 0xc8, 0xc6, 0xce, 0xb6, 0xbd, 0xc8, 0xc9, 0xee, 0xf6, 0xd2, 0xfc, 0xf5, 0xfa, 0x0a, 0x03, 0xfb, 0x0a, 0x04, 0x04, 0xf1, 0x07, 0xf9, 0x08, 0xf1, 0xf8, 0xf4, 0xf8, 0xec, 0xfc, 0xf7, 0xe5, 0xf5, 0xf5, 0xf1, 0xea, 0xf7, 0x07, 0xed, 0xf1, 0xed, 0x02, 0x0c, 0xf6, 0xf8, 0x0d, 0x0e, 0x07, 0x0d, 0xf4, 0xf8, 0x06, 0x06, 0xf3, 0x0d, 0x06, 0xfe, 0x0a, 0x11, 0x09, 0x04, 0xff, 0xfb, 0x03, 0x01, 0x08, 0x0e, 0x06, 0xf2, 0xfa, 0xf4, 0xf6, 0x05, 0xf6, 0x0e, 0x07, 0x0f, 0xfc, 0x0d, 0x29, 0x21, 0x25, 0x27, 0x1c, 0x02, 0x08, 0x08, 0x09, 0x07, 0x17, 0x08, 0x0d, 0x1b, 0x13, 0x20, 0x0f, 0x18, 0xf9, 0x03, 0xfd, 0x0b, 0x0b, 0xf2, 0x0d, 0xeb, 0xef, 0x03, 0x30, 0x24, 0x43, 0x48, 0x46, 0x39, 0x39, 0x24, 0x28, 0x21, 0x17, 0x22, 0x15, 0x0a, 0x23, 0x25, 0x1a, 0x21, 0x17, 0xfb, 0x08, 0x07, 0x00, 0xf9, 0xfa, 0xf8, 0xee, 0x29, 0x3d, 0x3d, 0x43, 0x58, 0x3a, 0x31, 0x2f, 0x29, 0x1c, 0x05, 0x15, 0x22, 0x0e, 0x1e, 0x10, 0x15, 0x05, 0x16, 0x14, 0x04, 0x06, 0xfc, 0x09, 0xf6, 0x03, 0x08, 0x2e, 0x2a, 0x18, 0x29, 0x21, 0x23, 0x1e, 0x11, 0x15, 0x18, 0x07, 0x04, 0x08, 0x02, 0x0a, 0x01, 0x04, 0xed, 0xe4, 0xfb, 0xe6, 0xf0, 0x07, 0x10, 0x0a, 0xf9, 0xf9, 0x0b, 0x3c, 0x29, 0x16, 0x19, 0x29, 0x10, 0x1e, 0x17, 0x1a, 0x17, 0x19, 0x14, 0x13, 0x14, 0x06, 0xfa, 0xf8, 0xe8, 0xd7, 0xe7, 0xeb, 0xf1, 0xf1, 0x1b, 0xf4, 0x02, 0x03, 0x2a, 0x2f, 0x26, 0x10, 0x1a, 0x22, 0x2f, 0x1d, 0x0e, 0x1b, 0x22, 0x14, 0x2d, 0x20, 0x1b, 0x10, 0xf6, 0xee, 0xf6, 0xe6, 0xd3, 0xe2, 0xe2, 0xf6, 0x08, 0xf2, 0x05, 0x3d, 0x4a, 0x3f, 0x0f, 0x1b, 0x0f, 0x13, 0x19, 0x13, 0x16, 0x0f, 0x10, 0x1a, 0x36, 0x1f, 0x16, 0xfb, 0xfa, 0x01, 0xff, 0xfa, 0xdb, 0xe1, 0xd0, 0x08, 0xed, 0xeb, 0x24, 0x22, 0x35, 0x51, 0x10, 0x0e, 0x25, 0x08, 0x15, 0x18, 0x0e, 0x09, 0x0b, 0x10, 0x05, 0x15, 0x0b, 0x16, 0x09, 0x0a, 0xf6, 0x0a, 0xd1, 0xd1, 0xbf, 0xe9, 0xf6, 0x16, 0x0c, 0x1b, 0x30, 0x4b, 0x2c, 0x1a, 0x23, 0x03, 0x09, 0x0c, 0xf0, 0xf4, 0xef, 0x07, 0x06, 0x11, 0x06, 0x18, 0x13, 0x16, 0x19, 0x06, 0xdb, 0x97, 0xad, 0xcc, 0xfa, 0x0b, 0x19, 0x17, 0x3d, 0x10, 0x27, 0x22, 0x08, 0x11, 0x00, 0xfc, 0xef, 0xe7, 0xd3, 0xde, 0xeb, 0x0a, 0x1c, 0x1f, 0x35, 0x23, 0x14, 0x1f, 0xec, 0x81, 0x86, 0xae, 0xf1, 0x0c, 0x12, 0x26, 0x2e, 0x18, 0x09, 0xfd, 0x03, 0x14, 0x0f, 0x09, 0xf0, 0xf2, 0xd2, 0xe4, 0xec, 0x0c, 0x20, 0x2a, 0x35, 0x37, 0x3e, 0x3c, 0x1b, 0xc7, 0x94, 0xb5, 0xe9, 0x0c, 0x12, 0x3b, 0x10, 0x24, 0x0b, 0x05, 0x05, 0x0b, 0x16, 0xf7, 0xf4, 0xee, 0xe4, 0xf0, 0x02, 0x2e, 0x2f, 0x23, 0x35, 0x3b, 0x33, 0x39, 0x3b, 0x1c, 0xfe, 0xd8, 0x11, 0xfe, 0x0a, 0x1f, 0x0b, 0x18, 0x05, 0xfc, 0x07, 0x05, 0x01, 0x06, 0x01, 0xef, 0xfe, 0xfb, 0x1a, 0x2a, 0x22, 0x1a, 0x18, 0x15, 0x1f, 0x18, 0x19, 0x1d, 0x2c, 0x0b, 0x2f, 0xd8, 0x07, 0x1c, 0x14, 0x03, 0xf3, 0x07, 0x04, 0x02, 0xf7, 0x05, 0x22, 0x14, 0x0f, 0x03, 0x21, 0x29, 0x1a, 0x2a, 0x24, 0x17, 0x0b, 0x13, 0x0c, 0xff, 0x2c, 0x28, 0x1b, 0xf8, 0x01, 0xf4, 0x1c, 0x05, 0x0b, 0x0d, 0x11, 0xfd, 0x0c, 0x08, 0x1a, 0x1f, 0x16, 0x17, 0x2f, 0x2a, 0x22, 0x12, 0x17, 0x06, 0x17, 0x0f, 0xfd, 0xfb, 0x38, 0x25, 0x30, 0x1d, 0xf6, 0x04, 0x19, 0x01, 0x06, 0x13, 0x16, 0x19, 0x2e, 0x2b, 0x22, 0x42, 0x2e, 0x0b, 0x1e, 0x2a, 0x29, 0x15, 0x0c, 0x07, 0xfb, 0xf2, 0xef, 0xf7, 0x54, 0x52, 0x1f, 0x03, 0x02, 0x16, 0x19, 0xf6, 0xec, 0xf0, 0x17, 0x25, 0x25, 0x28, 0x33, 0x35, 0x1c, 0x17, 0x1b, 0x17, 0x20, 0x19, 0x05, 0x00, 0xea, 0x05, 0xf6, 0xf7, 0x71, 0x4b, 0xe4, 0x20, 0x01, 0x1a, 0x11, 0xf0, 0xf4, 0xdb, 0x00, 0x18, 0x0a, 0x27, 0x16, 0x29, 0x03, 0x04, 0x0d, 0x1b, 0x1b, 0x15, 0x15, 0xfc, 0x07, 0xf4, 0xfb, 0xf6, 0x46, 0x2e, 0x23, 0xf0, 0xf7, 0xe1, 0x15, 0x09, 0x07, 0xe6, 0x00, 0xf1, 0xfb, 0x04, 0xfb, 0x09, 0xeb, 0x07, 0x0a, 0x18, 0x04, 0x12, 0xfd, 0xf2, 0xef, 0xff, 0xf5, 0xec, 0x10, 0x2f, 0x0d, 0x0c, 0xe5, 0xfc, 0x00, 0x11, 0x00, 0xfe, 0x09, 0xe7, 0xf9, 0xee, 0xe7, 0xe4, 0x01, 0x05, 0x00, 0x0c, 0x04, 0x0e, 0x03, 0x11, 0x05, 0xe1, 0xef, 0x12, 0x01, 0xff, 0x09, 0x02, 0x1b, 0x17, 0x05, 0xf2, 0xfc, 0xff, 0xf3, 0xf2, 0xf5, 0xf0, 0xec, 0x00, 0x0e, 0x0b, 0x01, 0x0a, 0x05, 0x03, 0x0b, 0xf5, 0xe3, 0xe6, 0xe8, 0x00, 0xef, 0xf4, 0xfa, 0xfa, 0xf8, 0x14, 0x06, 0x06, 0xec, 0xf6, 0x06, 0x03, 0xf5, 0x11, 0x13, 0x14, 0x07, 0x0c, 0xf5, 0xfe, 0xf2, 0xf5, 0x02, 0x05, 0xfc, 0x02, 0xfb, 0x01, 0xf6, 0xeb, 0x06, 0xfd, 0xfa, 0x08, 0x07, 0x07, 0xdd, 0xf3, 0x13, 0x0a, 0xff, 0x08, 0x08, 0x0e, 0x11, 0x19, 0x06, 0x00, 0xf7, 0x18, 0x0b, 0x1a, 0x0f, 0x15, 0x16, 0x0b, 0x01, 0xee, 0x0a, 0xf1, 0x0e, 0x06, 0xe5, 0x13, 0x05, 0x15, 0x11, 0x21, 0x11, 0x1c, 0x25, 0x1c, 0x1a, 0x16, 0x10, 0x21, 0x18, 0x0a, 0x10, 0x14, 0x29, 0x0a, 0x07, 0xff, 0x20, 0x14, 0x06, 0x0d, 0x01, 0xeb, 0xe3, 0x15, 0x24, 0x1f, 0x2b, 0x23, 0x24, 0x29, 0x20, 0x1e, 0x13, 0x2a, 0x0a, 0x1e, 0x0d, 0x13, 0x14, 0x38, 0x16, 0xdc, 0xe2, 0xf8, 0x27, 0x13, 0xfa, 0x0d, 0xf4, 0xf7, 0x02, 0x20, 0x2e, 0x3a, 0x45, 0x51, 0x44, 0x28, 0x28, 0x1e, 0x36, 0x46, 0x2e, 0x36, 0x3d, 0x2e, 0x36, 0x1b, 0x0e, 0x03, 0x16, 0x19, 0x00, 0x04, 0xf8, 0x0d, 0xf5, 0xf5, 0x0d, 0xfb, 0x15, 0x1a, 0x21, 0x27, 0x28, 0x24, 0x05, 0x21, 0x3a, 0x3d, 0x35, 0x2d, 0x23, 0x39, 0x2c, 0x29, 0x22, 0x1c, 0x19, 0xfd, 0x0e, 0xf6, 0x0d, 0xf8, 0xf6, 0xf1, 0x08, 0xfa, 0xf6, 0x0d, 0xf3, 0x06, 0xf5, 0x08, 0xfe, 0xff, 0xf8, 0xf4, 0x02, 0xf2, 0xf2, 0xfd, 0x07, 0xf6, 0xfb, 0xf8, 0x05, 0x0b, 0x01, 0x06, 0x04, 0xf8, 0x0a, 0x05, 0xf8, 0x0a, 0xf0, 0xde, 0xd4, 0xc9, 0xd2, 0xe6, 0xd9, 0xb2, 0xd1, 0xce, 0xe6, 0xd2, 0xda, 0xe3, 0xd2, 0xd9, 0xd9, 0xe6, 0xee, 0xf7, 0x0e, 0xf4, 0x05, 0x00, 0xf5, 0x0c, 0xe5, 0xfb, 0xf0, 0xdf, 0xca, 0xbb, 0xbe, 0xac, 0xb0, 0x9d, 0xac, 0xaf, 0xb6, 0xc1, 0xc7, 0xbe, 0xd4, 0xc4, 0xc2, 0xd4, 0xe2, 0xeb, 0x03, 0xf6, 0x0e, 0xf8, 0xfd, 0xfa, 0xf2, 0xf7, 0xe8, 0xb9, 0xad, 0xa6, 0x9b, 0xb3, 0xbe, 0xac, 0x98, 0xac, 0xb5, 0xd1, 0xdb, 0xd8, 0xd3, 0xe0, 0xc4, 0xdb, 0xcf, 0xe3, 0xe6, 0xfb, 0x0f, 0x06, 0x03, 0x04, 0xdb, 0x0e, 0xd8, 0xaf, 0xc3, 0xc4, 0xbc, 0xa8, 0xd2, 0xc5, 0xc3, 0xcc, 0xda, 0xd5, 0xdb, 0xe8, 0xe9, 0xe5, 0xe1, 0xf7, 0xf6, 0x03, 0xf2, 0xe1, 0xf3, 0x0c, 0x0e, 0x02, 0x0b, 0x00, 0x0c, 0xef, 0xe6, 0xe7, 0xe5, 0xeb, 0xe3, 0xf1, 0xed, 0xee, 0xf1, 0xed, 0xf2, 0xef, 0xf1, 0xef, 0xf2, 0x01, 0xf2, 0xfe, 0xf2, 0xdb, 0xdb, 0xfd, 0xef, 0x12, 0x08, 0x07, 0x11, 0x23, 0xfa, 0xf1, 0x0b, 0x08, 0x0a, 0x00, 0x0a, 0x0d, 0x08, 0x09, 0x1b, 0x09, 0x00, 0xff, 0x0f, 0x04, 0xfc, 0xf4, 0xd8, 0xef, 0x03, 0xf0, 0xe6, 0x16, 0x1d, 0xf6, 0x05, 0x01, 0x05, 0xfd, 0x08, 0x0e, 0x1d, 0x0f, 0x1a, 0x2a, 0x29, 0x25, 0x33, 0x27, 0x1e, 0x1a, 0x15, 0x0f, 0xff, 0xfb, 0xf7, 0xf6, 0x04, 0xfc, 0xdb, 0x11, 0xe8, 0xdf, 0xfc, 0xf7, 0xf8, 0x09, 0x0e, 0x0e, 0x14, 0x04, 0x08, 0x08, 0x1f, 0x1a, 0x23, 0x28, 0x0b, 0x01, 0x00, 0x04, 0x0b, 0xf1, 0xf1, 0xea, 0xdf, 0xea, 0xef, 0xf5, 0xe7, 0xdc, 0xf3, 0xfd, 0xf8, 0xfe, 0x0a, 0x0e, 0x03, 0x13, 0x04, 0xf4, 0x22, 0x24, 0x21, 0x36, 0x21, 0x1b, 0xfc, 0xff, 0xff, 0xf4, 0xe7, 0xd6, 0x03, 0xf2, 0x0c, 0xea, 0xd2, 0xd8, 0x02, 0xff, 0xf4, 0x14, 0x1a, 0x17, 0x20, 0x1a, 0xfe, 0xf3, 0x1e, 0x2f, 0x31, 0x14, 0x24, 0x0d, 0xfe, 0xf3, 0xed, 0xe8, 0xe5, 0xe4, 0x02, 0xf9, 0xf9, 0xe3, 0xde, 0xdf, 0x04, 0x07, 0x17, 0x1f, 0x1d, 0x26, 0x16, 0x0d, 0xe8, 0xd8, 0x2b, 0x38, 0x1e, 0x1a, 0x1a, 0x25, 0x1e, 0xed, 0xda, 0xcd, 0xd2, 0xea, 0x01, 0xfa, 0x0c, 0xe5, 0xf3, 0xf4, 0x0f, 0x24, 0x41, 0x30, 0x23, 0x1e, 0x1d, 0x16, 0xec, 0xf0, 0x18, 0x24, 0x17, 0x24, 0x19, 0x23, 0x10, 0x1b, 0xf4, 0xe3, 0xd1, 0xfb, 0x04, 0x11, 0x10, 0xf1, 0xf1, 0x32, 0x26, 0x3a, 0x3c, 0x21, 0x19, 0x0a, 0x15, 0xf5, 0xce, 0xf0, 0x1f, 0x2b, 0x1e, 0x2d, 0x24, 0x25, 0x17, 0x12, 0xef, 0xd7, 0xe9, 0xe7, 0xed, 0xf4, 0xfe, 0xfb, 0x1b, 0x50, 0x2f, 0x25, 0x28, 0x1b, 0x16, 0x0e, 0x0d, 0x01, 0xe4, 0xf1, 0x0f, 0x20, 0x21, 0x14, 0x27, 0x1c, 0x10, 0x0b, 0xe0, 0xe7, 0xf5, 0xcc, 0xf2, 0xe6, 0xf6, 0xf8, 0x16, 0x3e, 0x08, 0x16, 0x19, 0x1d, 0x10, 0x11, 0x11, 0xf9, 0xdf, 0xe9, 0x0c, 0x21, 0x29, 0x1e, 0x0f, 0x0c, 0x06, 0xf9, 0xec, 0xe0, 0xba, 0xe4, 0xdf, 0x0f, 0xfa, 0xe7, 0xd6, 0x0b, 0xf7, 0xf5, 0x18, 0x1d, 0x05, 0x0a, 0x05, 0x04, 0xda, 0xfc, 0x0f, 0x11, 0x31, 0x20, 0x0b, 0x16, 0xf9, 0xea, 0xe1, 0xd2, 0xb0, 0xce, 0xf7, 0xfa, 0xf0, 0xe2, 0xc6, 0xe9, 0xe5, 0xfb, 0x0d, 0x04, 0x10, 0xf2, 0xf6, 0xfe, 0xee, 0x09, 0x1a, 0x1a, 0x22, 0x00, 0xeb, 0xf4, 0xf2, 0xf0, 0xd9, 0xcc, 0xc2, 0xcf, 0xcc, 0xfd, 0xe9, 0xec, 0xd0, 0xea, 0xf6, 0xe9, 0xe5, 0xef, 0xec, 0xeb, 0xe3, 0xe1, 0xf9, 0x0a, 0x07, 0xf3, 0xee, 0xf3, 0x02, 0xfb, 0x04, 0xea, 0xc3, 0xbe, 0xb1, 0xe8, 0x11, 0x0c, 0x0b, 0x01, 0xef, 0x05, 0xf1, 0xda, 0xd0, 0xd7, 0xc3, 0xca, 0xde, 0xdd, 0xf1, 0xf9, 0xf8, 0xea, 0xec, 0xd8, 0xf8, 0xee, 0xe3, 0xbf, 0xc4, 0xc9, 0xe4, 0xf0, 0x25, 0xfd, 0x16, 0x0a, 0xe7, 0xff, 0xff, 0xe1, 0xc9, 0xc5, 0xcb, 0xca, 0xe5, 0xdb, 0xe7, 0xf4, 0xf8, 0xf8, 0x03, 0xe7, 0xf6, 0xde, 0xda, 0xce, 0xc2, 0xf8, 0xf7, 0x03, 0x12, 0x01, 0xee, 0xcc, 0xd8, 0xf3, 0xfa, 0xe9, 0xdb, 0xd9, 0xe9, 0xe4, 0xe5, 0xe0, 0xf1, 0xdd, 0xf7, 0xef, 0xed, 0xe6, 0xd4, 0xee, 0xe4, 0xd9, 0xf2, 0x09, 0xf8, 0xff, 0x00, 0x0c, 0xf2, 0xbf, 0xd7, 0xd3, 0xf4, 0x05, 0xf4, 0x11, 0xf8, 0x0d, 0xf9, 0x00, 0xf8, 0x00, 0xf7, 0xf5, 0xf8, 0xed, 0xed, 0xec, 0xfa, 0x08, 0xfa, 0x12, 0x0b, 0x04, 0x04, 0x05, 0xfa, 0xc6, 0xb4, 0xd5, 0xfb, 0x02, 0x0c, 0x14, 0x17, 0x10, 0x15, 0x02, 0xf9, 0x0e, 0x08, 0x08, 0xf9, 0xf1, 0x00, 0x0d, 0x0c, 0x20, 0x12, 0x17, 0xf9, 0xfa, 0x00, 0x09, 0xfd, 0x01, 0xfa, 0xf3, 0x22, 0x10, 0x1b, 0x08, 0x12, 0x08, 0x05, 0x0a, 0x02, 0x05, 0xfe, 0x07, 0x14, 0x0d, 0x08, 0x0c, 0x14, 0x2e, 0x11, 0xec, 0xe6, 0xf2, 0x03, 0xf3, 0xf7, 0x0f, 0x1c, 0x0b, 0x1e, 0xfe, 0xfb, 0x01, 0x09, 0xf9, 0x0f, 0xf9, 0x03, 0x0c, 0xfd, 0x03, 0x08, 0x17, 0x07, 0x31, 0x32, 0x16, 0x1c, 0xe7, 0x07, 0xf4, 0xfc, 0xf6, 0x0b, 0x0c, 0x18, 0x1a, 0x31, 0x2a, 0xff, 0xfd, 0x05, 0x01, 0xf6, 0xf6, 0x0b, 0x17, 0x03, 0xfd, 0x03, 0x13, 0x0c, 0x1c, 0x10, 0xf2, 0x0d, 0x07, 0x03, 0x0b, 0xf5, 0x02, 0x01, 0x0c, 0x02, 0x04, 0xed, 0xfb, 0xf6, 0xe8, 0xeb, 0xf8, 0xe9, 0xff, 0xeb, 0xe3, 0xee, 0xeb, 0xde, 0xfd, 0xfa, 0x0d, 0x02, 0x02, 0xe6, 0x0f, 0x0f, 0x03, 0xfd, 0x0c, 0x03, 0xff, 0x0f, 0xfe, 0x0b, 0x08, 0xf3, 0xfa, 0xf7, 0xf9, 0x02, 0x16, 0x09, 0xf6, 0xf8, 0xfc, 0xf2, 0xf6, 0x00, 0xf2, 0x00, 0x00, 0x0b, 0x0a, 0x04, 0xf8, 0x0f, 0xf8, 0x09, 0xf2, 0x0e, 0x0a, 0x0f, 0x35, 0x36, 0x2a, 0x2a, 0x28, 0x38, 0x44, 0x2c, 0xf9, 0xf4, 0xe8, 0x0c, 0x18, 0x2e, 0x1c, 0x0b, 0x24, 0x16, 0x09, 0xf6, 0xf1, 0xfd, 0x0e, 0xf4, 0x04, 0x1d, 0x08, 0x0e, 0x28, 0x30, 0x3d, 0x07, 0x25, 0x21, 0x0e, 0x0f, 0x04, 0x0f, 0xfc, 0x17, 0x22, 0x37, 0x38, 0x33, 0x54, 0x11, 0xdf, 0xed, 0xfd, 0x05, 0xf3, 0xf6, 0xfc, 0x2a, 0x31, 0xf1, 0x12, 0x0b, 0x14, 0x01, 0xfe, 0xed, 0xe5, 0xda, 0xf5, 0xfb, 0xf8, 0xfb, 0x17, 0x1b, 0x12, 0x42, 0x40, 0x5e, 0x11, 0xfe, 0x2b, 0xf8, 0x05, 0xfb, 0xee, 0xde, 0xfd, 0xeb, 0xda, 0xea, 0xe1, 0xf0, 0xe9, 0xf1, 0xf3, 0xed, 0xfd, 0x07, 0x0d, 0x11, 0x0f, 0x1e, 0x1c, 0x28, 0x31, 0x54, 0x59, 0x30, 0x16, 0x15, 0x00, 0xf8, 0xe9, 0xe2, 0xe9, 0xb6, 0xd1, 0xe9, 0xeb, 0xed, 0x05, 0xf9, 0x02, 0x07, 0x09, 0xfb, 0x0f, 0x21, 0x10, 0x18, 0x1d, 0x21, 0x32, 0x2f, 0x46, 0x40, 0x4d, 0x20, 0xfd, 0xe6, 0x02, 0xb4, 0xc8, 0xe3, 0xd8, 0xf7, 0xfa, 0x00, 0xfe, 0x00, 0x0b, 0xf9, 0x11, 0x13, 0x04, 0x0f, 0x0b, 0x0d, 0x0c, 0x0b, 0x21, 0x33, 0x54, 0x71, 0x4a, 0x1c, 0x0a, 0xdd, 0xe0, 0xaa, 0xc3, 0xcf, 0xe8, 0xf9, 0xf9, 0x01, 0x06, 0x05, 0xfc, 0xfc, 0x03, 0x10, 0x0f, 0x0a, 0x0e, 0xfa, 0x01, 0x02, 0x0c, 0x33, 0x57, 0x4f, 0x41, 0x19, 0x13, 0xda, 0xe5, 0xd0, 0xc6, 0xe1, 0xe8, 0xfe, 0x0b, 0x10, 0x0b, 0x09, 0x0b, 0x02, 0xec, 0xf7, 0xf7, 0xf8, 0xf8, 0xf7, 0x09, 0xff, 0x05, 0x28, 0x61, 0x4c, 0x3a, 0x22, 0x04, 0xe1, 0xce, 0xb1, 0xb1, 0xe4, 0x09, 0x03, 0x12, 0x16, 0x21, 0x15, 0x0f, 0xf3, 0xcd, 0xb7, 0xcb, 0xd9, 0xf0, 0xf5, 0x07, 0x06, 0x02, 0x2a, 0x61, 0x48, 0x1a, 0xf9, 0xf2, 0xed, 0xbf, 0xba, 0xea, 0xf0, 0xfe, 0x25, 0x1e, 0x38, 0x2d, 0x34, 0x37, 0x01, 0xbc, 0xae, 0xb1, 0xd8, 0xe0, 0xee, 0xfb, 0xf8, 0xfd, 0x17, 0x5a, 0x37, 0x13, 0xe6, 0x01, 0xda, 0xb0, 0xc1, 0xe8, 0x03, 0x1e, 0x34, 0x40, 0x3f, 0x36, 0x24, 0x37, 0x0a, 0xe7, 0xbf, 0xd3, 0xce, 0xdd, 0xff, 0xf6, 0x0d, 0xf5, 0x2f, 0x3e, 0x27, 0x26, 0xff, 0xee, 0xdb, 0xc5, 0xd3, 0xdf, 0x11, 0x33, 0x37, 0x2b, 0x1a, 0x13, 0x27, 0x26, 0x30, 0xe5, 0xe3, 0xdf, 0xf2, 0xf5, 0x02, 0x09, 0x23, 0x34, 0x44, 0x2e, 0xdb, 0xe2, 0xe2, 0xfb, 0xf0, 0xd5, 0xe0, 0xef, 0x2f, 0x31, 0x24, 0x0d, 0x19, 0x1c, 0x2a, 0x31, 0x18, 0xf6, 0xf4, 0xef, 0xeb, 0xfa, 0x0c, 0x22, 0x22, 0x3d, 0x40, 0x1b, 0xc5, 0xb0, 0xd9, 0x27, 0xfd, 0xcd, 0xd4, 0xf3, 0x13, 0x19, 0x14, 0x11, 0x15, 0x2e, 0x33, 0x2f, 0x11, 0xf9, 0x03, 0xf3, 0xf9, 0xe5, 0xf9, 0xfc, 0x07, 0x19, 0x24, 0x18, 0xd2, 0xa9, 0xdb, 0x20, 0xe7, 0xed, 0xe4, 0xe5, 0xf6, 0xfe, 0x17, 0x25, 0x2d, 0x2b, 0x33, 0x33, 0x11, 0x0b, 0xfe, 0x03, 0xef, 0xf1, 0xf2, 0xee, 0xf9, 0xef, 0x12, 0xfd, 0xec, 0xab, 0xe4, 0xe5, 0xee, 0xe3, 0xd6, 0xb4, 0xdd, 0x06, 0x1b, 0x2d, 0x38, 0x30, 0x30, 0x23, 0x08, 0x0f, 0xfc, 0x00, 0xf2, 0xf3, 0xe8, 0xf9, 0xf0, 0xeb, 0xf2, 0xf1, 0xcb, 0xa2, 0xdb, 0xfe, 0xec, 0xe8, 0xcd, 0xc1, 0xe8, 0xf1, 0x20, 0x29, 0x41, 0x3d, 0x46, 0x2d, 0x0f, 0xef, 0xfa, 0x07, 0xfa, 0x0c, 0xf6, 0x0a, 0xe4, 0xf3, 0xe4, 0xf0, 0xb7, 0xbc, 0xd7, 0x07, 0x01, 0xef, 0xca, 0xdd, 0xed, 0xfa, 0x0d, 0x26, 0x35, 0x47, 0x39, 0x23, 0x02, 0xed, 0xff, 0x01, 0x01, 0xff, 0x03, 0x0d, 0xe9, 0xe8, 0xf0, 0xf5, 0xba, 0xc7, 0xcb, 0x01, 0xf2, 0xf7, 0xd4, 0xe8, 0xf5, 0x0b, 0x06, 0x1b, 0x1d, 0x27, 0x3a, 0x2c, 0x0a, 0xff, 0x0b, 0x07, 0xf8, 0x02, 0xfc, 0xfa, 0x01, 0x0d, 0x10, 0xfb, 0xb6, 0xd2, 0xda, 0xfe, 0x0b, 0x0a, 0xd4, 0xe3, 0xf1, 0x00, 0xff, 0xfe, 0x17, 0x25, 0x18, 0x26, 0x1a, 0x17, 0x1b, 0x05, 0x1a, 0x10, 0xf8, 0xfe, 0x0a, 0x15, 0x08, 0xe8, 0xce, 0xd5, 0xfb, 0xf4, 0xf7, 0xe9, 0xe0, 0xe8, 0xf9, 0xec, 0x06, 0x0e, 0x02, 0x1d, 0x19, 0x20, 0x2a, 0x2b, 0x11, 0x0d, 0x0d, 0x0a, 0x01, 0x09, 0x19, 0x2c, 0x0e, 0xe9, 0xdf, 0xf4, 0x00, 0x03, 0xfc, 0xe9, 0xd8, 0xe3, 0xea, 0xda, 0xf9, 0x03, 0xef, 0x06, 0x0c, 0x27, 0x29, 0x27, 0x13, 0x17, 0x07, 0x0c, 0x13, 0x15, 0x1a, 0x0d, 0x0b, 0xf1, 0xea, 0x22, 0x17, 0x09, 0x03, 0xf7, 0xec, 0xdc, 0xdc, 0xde, 0xdc, 0xfb, 0x08, 0xfc, 0x10, 0x28, 0x18, 0x1a, 0x1b, 0x2a, 0x0b, 0x0c, 0x15, 0x2b, 0x15, 0x0d, 0x09, 0xe4, 0xf1, 0xea, 0xfc, 0x0a, 0x05, 0xfb, 0xed, 0xbf, 0xc6, 0xc8, 0xd6, 0xf0, 0x05, 0x0a, 0x08, 0x0e, 0x0f, 0x10, 0x0b, 0x29, 0x0a, 0x33, 0x2f, 0x24, 0xf5, 0x06, 0x1a, 0xf2, 0xe2, 0xeb, 0x08, 0x03, 0x07, 0x17, 0x10, 0xdf, 0xc6, 0xd4, 0xc9, 0xc1, 0xd8, 0xef, 0xf2, 0xe7, 0xf5, 0xf8, 0x01, 0x0d, 0x08, 0x0f, 0xf2, 0xf6, 0xfe, 0x0c, 0x29, 0x10, 0xe4, 0xef, 0x0d, 0xfd, 0xf8, 0xfd, 0x0e, 0x10, 0xe3, 0xea, 0xbf, 0xcc, 0xdd, 0xd7, 0xe7, 0xf1, 0xe9, 0xd0, 0xe7, 0xcb, 0xce, 0xcb, 0xd3, 0xea, 0xec, 0xdb, 0x02, 0xe4, 0xf9, 0xfd, 0x09, 0x0b, 0xf5, 0xf3, 0xf6, 0x02, 0xe8, 0xf8, 0xf4, 0xd4, 0xdd, 0xcf, 0x08, 0xea, 0xe1, 0xe2, 0xdf, 0xdc, 0xd9, 0xeb, 0xdf, 0xea, 0xf8, 0xdc, 0xef, 0x03, 0x03, 0xfc, 0x0d, 0xf8, 0x07, 0x0f, 0xfe, 0x04, 0x0d, 0x05, 0xf8, 0x08, 0xf1, 0x0b, 0x0c, 0xf4, 0x1d, 0x03, 0x0c, 0x09, 0x07, 0x05, 0x0a, 0x0a, 0x05, 0xfe, 0xf2, 0xf2, 0x00, 0x05, 0xff, 0x08, 0x09, 0xf8, 0xfc, 0xf6, 0xf8, 0x07, 0x09, 0xf5, 0xf3, 0xf4, 0x1c, 0x05, 0x0b, 0xee, 0x00, 0x05, 0x11, 0xdb, 0xf5, 0xf4, 0xfa, 0xf2, 0x0f, 0x0f, 0x0e, 0x08, 0x02, 0x04, 0xf5, 0xfb, 0x14, 0x02, 0x03, 0xe4, 0xdf, 0xd1, 0xd2, 0xc0, 0xc2, 0xcb, 0xcb, 0xa9, 0xa0, 0xbc, 0xcd, 0xdd, 0xde, 0xeb, 0xea, 0xe8, 0xe5, 0x0e, 0x21, 0x02, 0xfe, 0x03, 0xf9, 0xf6, 0x0d, 0xfe, 0xdd, 0xe9, 0xed, 0x05, 0xf0, 0xf4, 0x19, 0x1b, 0x13, 0x0e, 0x00, 0xeb, 0x07, 0xf3, 0xf0, 0x00, 0xf0, 0xea, 0xf3, 0xf2, 0x0f, 0x0f, 0xf1, 0x0e, 0xf5, 0x06, 0x2c, 0xf7, 0xeb, 0x0d, 0xff, 0x0e, 0x1c, 0x25, 0x2a, 0x2f, 0x1c, 0x12, 0x21, 0x11, 0x0e, 0x0a, 0xf0, 0xef, 0xe9, 0xda, 0xe9, 0x02, 0x21, 0x23, 0xf1, 0x09, 0xf3, 0xe9, 0x21, 0xf7, 0x03, 0x08, 0x0d, 0x02, 0x15, 0x15, 0x22, 0x18, 0x29, 0x13, 0x14, 0x1a, 0x2c, 0x09, 0xfc, 0x00, 0xe7, 0xe4, 0xbf, 0xef, 0x16, 0x1f, 0xea, 0x05, 0x1d, 0x24, 0x0d, 0xf5, 0x0c, 0x25, 0x14, 0x25, 0x1d, 0x35, 0x27, 0x26, 0x32, 0x34, 0x3a, 0x2f, 0x35, 0x20, 0x22, 0x19, 0x10, 0xfc, 0xe5, 0xdf, 0xfe, 0x07, 0xff, 0x04, 0x27, 0x1e, 0x29, 0xee, 0x1a, 0x2d, 0x23, 0x1a, 0x21, 0x45, 0x2d, 0x38, 0x2f, 0x2e, 0x3c, 0x31, 0x3d, 0x27, 0x28, 0x16, 0x1b, 0x0b, 0x0b, 0x10, 0x0a, 0xef, 0x01, 0x27, 0x1f, 0x12, 0x18, 0xf7, 0xfd, 0x27, 0x16, 0x33, 0x2c, 0x1f, 0x26, 0x30, 0x26, 0x38, 0x28, 0x33, 0x27, 0x39, 0x1e, 0x2a, 0x12, 0x2b, 0x24, 0x46, 0x0a, 0x10, 0x1d, 0x17, 0x27, 0x21, 0x2e, 0x21, 0x17, 0x1a, 0x17, 0x10, 0x1d, 0x1f, 0x21, 0x17, 0x1e, 0x22, 0x1a, 0x27, 0x29, 0x39, 0x26, 0x2c, 0x26, 0x1b, 0x36, 0x61, 0x5e, 0x38, 0x32, 0x0a, 0x1d, 0x3d, 0x39, 0x20, 0x1b, 0x06, 0x16, 0x08, 0x1f, 0x12, 0x01, 0x0b, 0x28, 0x1b, 0x0e, 0x2e, 0x24, 0x1d, 0x35, 0x2f, 0x22, 0x25, 0x3d, 0x5c, 0x69, 0x46, 0x19, 0x08, 0x3b, 0x45, 0x3c, 0x1a, 0xfb, 0x25, 0x19, 0x23, 0x0b, 0x0d, 0x10, 0x0a, 0x24, 0x1a, 0xfe, 0xfd, 0x06, 0x1a, 0x12, 0x18, 0x15, 0x19, 0x2a, 0x46, 0x35, 0x3a, 0xf7, 0x12, 0x2f, 0x35, 0x1b, 0x08, 0x0e, 0x13, 0x0c, 0x11, 0xf5, 0xf3, 0xf6, 0xf4, 0x03, 0xf4, 0xe3, 0xe6, 0x03, 0x15, 0x0d, 0x0e, 0xf6, 0x04, 0xff, 0xf5, 0x12, 0x31, 0xf6, 0xfc, 0x0e, 0x43, 0x1c, 0xff, 0x13, 0x02, 0x0d, 0xe8, 0xfc, 0xf3, 0xdd, 0xe5, 0xe9, 0xd7, 0xcb, 0xe8, 0xec, 0xf5, 0x02, 0xfe, 0xf3, 0xfc, 0xf1, 0xe7, 0xe3, 0xeb, 0xdb, 0x10, 0x09, 0x38, 0xff, 0xd7, 0xf5, 0xe9, 0xe3, 0xe9, 0xf9, 0x08, 0xf0, 0xe2, 0xea, 0xd3, 0xd8, 0xd8, 0xf1, 0x0d, 0x06, 0xf5, 0x0c, 0x04, 0x0a, 0x03, 0xe0, 0xc5, 0xf7, 0x1b, 0x17, 0x14, 0xdc, 0xf4, 0xf4, 0xe8, 0xec, 0xe5, 0xf5, 0x05, 0xf9, 0xf7, 0xe1, 0xcf, 0xda, 0xd2, 0xee, 0x0f, 0x06, 0x1e, 0x19, 0x0c, 0x1e, 0x10, 0xe8, 0xd3, 0xe0, 0x17, 0x03, 0xff, 0xec, 0x13, 0xf2, 0xe2, 0xf1, 0xf9, 0x06, 0xf0, 0xf3, 0xfe, 0xcb, 0xcc, 0xd5, 0xdf, 0xf8, 0x0c, 0x0a, 0x18, 0xff, 0x0f, 0x1f, 0xfd, 0xb4, 0xbf, 0xfd, 0xf1, 0x14, 0xef, 0x10, 0x1d, 0x0d, 0xfc, 0xea, 0xe5, 0xfd, 0xf5, 0xe5, 0xea, 0xca, 0xb8, 0xcf, 0xf6, 0x18, 0x15, 0x18, 0x05, 0x0f, 0x06, 0x09, 0x06, 0xb7, 0xd5, 0x19, 0x08, 0x14, 0x06, 0x23, 0x25, 0x15, 0x19, 0xf6, 0x00, 0xfe, 0xfc, 0xed, 0xc2, 0xce, 0xd7, 0xf8, 0x00, 0x04, 0x0c, 0x13, 0x07, 0x13, 0x15, 0x0a, 0xe0, 0xcc, 0xe6, 0xd3, 0xeb, 0x22, 0x15, 0x12, 0x13, 0x2b, 0x10, 0x11, 0x20, 0x25, 0x03, 0x01, 0xf8, 0xdd, 0xe9, 0xef, 0xec, 0x0e, 0xf8, 0x0e, 0xf7, 0xf7, 0x17, 0x09, 0xfb, 0xcb, 0xc9, 0xd9, 0x03, 0x23, 0x07, 0x10, 0x12, 0x24, 0x21, 0x0f, 0x21, 0x0b, 0x14, 0xfc, 0xf7, 0x01, 0x02, 0x02, 0xf4, 0x01, 0xff, 0xf6, 0x04, 0xf4, 0x0c, 0xfe, 0xdf, 0xe2, 0xe0, 0x03, 0xe1, 0x01, 0x03, 0xfd, 0x02, 0x10, 0x21, 0x11, 0x01, 0x0f, 0x03, 0x0a, 0x1a, 0x0d, 0x02, 0xfe, 0x0d, 0xf3, 0xee, 0xe5, 0xf5, 0xe4, 0x04, 0xff, 0xed, 0xe7, 0x11, 0x0a, 0xf7, 0xf8, 0xf2, 0xfb, 0xf6, 0xec, 0x09, 0x14, 0x1b, 0x08, 0x0d, 0x30, 0x26, 0x27, 0x21, 0x14, 0x12, 0xf8, 0xe7, 0xef, 0xe3, 0xe6, 0xfe, 0xf9, 0xea, 0x01, 0x01, 0x02, 0xfc, 0x01, 0x10, 0x24, 0x10, 0x0d, 0x09, 0x15, 0x0f, 0x24, 0x25, 0x24, 0x27, 0x1d, 0x26, 0x0d, 0xfd, 0xfd, 0xed, 0xdd, 0xda, 0xc4, 0xf7, 0x12, 0x15, 0xf2, 0xe5, 0x08, 0x03, 0xf4, 0x09, 0x50, 0x42, 0x15, 0x1c, 0x1c, 0x1f, 0x19, 0x1d, 0x25, 0x2b, 0x3a, 0x29, 0x2b, 0x21, 0x0f, 0x08, 0x08, 0xe9, 0xe0, 0xf0, 0xf4, 0xed, 0xd5, 0xfa, 0x07, 0xfd, 0x08, 0xdf, 0x30, 0x26, 0x1e, 0x26, 0x2d, 0x4c, 0x4a, 0x3e, 0x59, 0x51, 0x55, 0x3b, 0x47, 0x41, 0x49, 0x2d, 0x2d, 0xf2, 0xfc, 0x15, 0x10, 0x2e, 0xe1, 0x05, 0xf3, 0x06, 0x0a, 0x0f, 0x01, 0xda, 0xed, 0xf6, 0x07, 0x18, 0x1d, 0x2c, 0x3f, 0x23, 0x4b, 0x3b, 0x4b, 0x45, 0x4c, 0x3d, 0x33, 0xf4, 0x15, 0x26, 0xe1, 0x0f, 0xf4, 0x08, 0x0f, 0x0a, 0xff, 0xfa, 0x0c, 0x08, 0x20, 0x0f, 0x0a, 0x36, 0x2d, 0x4a, 0x0e, 0x18, 0x4d, 0x29, 0x24, 0x33, 0x57, 0x21, 0x3c, 0xfd, 0x20, 0x22, 0x1c, 0xfd, 0x02, 0xf8, 0xf1, 0x05, 0x0c, 0x01, 0x02, 0xf9, 0xf4, 0xff, 0xf3, 0x02, 0x0a, 0x03, 0x06, 0x11, 0x0f, 0xe5, 0xf3, 0xf8, 0xf7, 0xf9, 0xf4, 0x00, 0xf3, 0x04, 0xf8, 0xf2, 0xfb, 0xf7, 0xf4, 0x07, 0x01, 0x01, 0xf7, 0xf5, 0xfe, 0x1b, 0x14, 0x15, 0x14, 0x29, 0x34, 0x33, 0x3b, 0x05, 0x12, 0x03, 0xf4, 0x15, 0x18, 0x0d, 0x0e, 0x2c, 0x20, 0x0a, 0xf6, 0xfa, 0x09, 0x04, 0xfc, 0xfe, 0x24, 0x1d, 0x06, 0x0c, 0x2f, 0x23, 0xe9, 0x01, 0xf5, 0x17, 0x27, 0x26, 0x28, 0x28, 0x2e, 0x2f, 0x41, 0x3a, 0x2f, 0x2f, 0x24, 0xf9, 0xf6, 0xf6, 0x0e, 0x04, 0x07, 0x0d, 0x2c, 0x20, 0x23, 0x19, 0x26, 0x00, 0xf4, 0x09, 0xf8, 0x14, 0x0e, 0x23, 0x29, 0x2b, 0x34, 0x4e, 0x3f, 0x32, 0x24, 0x2d, 0x1c, 0x11, 0xf0, 0x1d, 0x0f, 0x0c, 0xf8, 0x18, 0x28, 0x14, 0x1f, 0x15, 0x21, 0x08, 0x00, 0x0e, 0x19, 0x19, 0x10, 0x1c, 0x28, 0x1c, 0x1e, 0x21, 0x20, 0x12, 0x0b, 0x19, 0x28, 0x0f, 0x00, 0x03, 0x12, 0xfb, 0x08, 0x23, 0x20, 0x18, 0x16, 0xfc, 0x07, 0xe5, 0x05, 0x0b, 0x1b, 0x0d, 0x13, 0x0b, 0x08, 0x0b, 0x04, 0x14, 0x07, 0x15, 0x16, 0x26, 0x28, 0x31, 0x1d, 0x2b, 0x28, 0xf3, 0x10, 0xeb, 0x0b, 0xf2, 0xdf, 0xe5, 0xe6, 0xee, 0x00, 0xfe, 0x20, 0x22, 0x24, 0x36, 0x29, 0x2f, 0x1f, 0x2b, 0x02, 0x1c, 0xf5, 0xf4, 0x02, 0x2f, 0x47, 0x29, 0x15, 0x0a, 0x24, 0xca, 0xeb, 0xec, 0xec, 0xe4, 0xde, 0xf0, 0xf8, 0xfc, 0x10, 0x2f, 0x23, 0x41, 0x2a, 0x30, 0x1f, 0x14, 0x0b, 0x0f, 0xf2, 0xfb, 0x02, 0x1a, 0x41, 0x1c, 0x1f, 0x02, 0xe0, 0xc4, 0xe0, 0xe7, 0xdf, 0xe9, 0xd9, 0xe5, 0xef, 0xff, 0xf9, 0x07, 0x17, 0x13, 0x1f, 0x10, 0x19, 0x16, 0x06, 0x0a, 0x12, 0xfa, 0xfe, 0x1b, 0x3d, 0x32, 0x1b, 0xed, 0xef, 0xcf, 0xf7, 0xe4, 0xe2, 0x02, 0xfb, 0x09, 0x01, 0x05, 0x02, 0xff, 0xed, 0x0d, 0x01, 0xfc, 0xf4, 0xff, 0xfa, 0x0b, 0x02, 0x04, 0x0f, 0x27, 0x5f, 0x39, 0xf0, 0x06, 0xef, 0xc7, 0xfc, 0xe1, 0xd1, 0xe7, 0xf5, 0xf3, 0xeb, 0xef, 0xe8, 0xe3, 0xf8, 0x0d, 0xf7, 0xeb, 0xf3, 0xf4, 0xf7, 0xed, 0xe3, 0xe1, 0xf6, 0x35, 0x7e, 0x59, 0x09, 0xf8, 0xd2, 0xd2, 0xe2, 0xe7, 0xf8, 0xfd, 0xf1, 0xf3, 0xf8, 0xf6, 0xec, 0xef, 0x1c, 0x22, 0x1c, 0xf3, 0xef, 0x01, 0x00, 0x06, 0xd9, 0xd2, 0xc3, 0xe0, 0x57, 0x4f, 0x18, 0xee, 0xe0, 0xb8, 0xd1, 0xea, 0x04, 0xfb, 0xf8, 0xe5, 0xec, 0xea, 0xf2, 0x0a, 0x2e, 0x3a, 0x1b, 0xef, 0xf6, 0x0b, 0x08, 0xee, 0xe3, 0xb3, 0xaa, 0x96, 0xd4, 0xef, 0xee, 0x04, 0xe8, 0xc7, 0xe8, 0x07, 0xf9, 0xff, 0xf5, 0x00, 0x01, 0xf4, 0xf4, 0x17, 0x45, 0x2f, 0x25, 0xf7, 0x02, 0xff, 0x11, 0x06, 0xd4, 0xb2, 0xbf, 0x9b, 0xaf, 0xd7, 0xff, 0x18, 0xe1, 0xcc, 0xea, 0xdd, 0xf2, 0xf4, 0xde, 0xf9, 0x00, 0x09, 0xfa, 0x1e, 0x43, 0x3f, 0x21, 0x05, 0xf2, 0xfa, 0xeb, 0xec, 0xf6, 0xc3, 0xcb, 0xda, 0xd1, 0xee, 0xfb, 0x0e, 0x09, 0xf2, 0xef, 0xeb, 0xed, 0xf7, 0xe8, 0xf3, 0xf0, 0x0d, 0x23, 0x2b, 0x35, 0x33, 0xfa, 0xfb, 0xec, 0xf2, 0xe4, 0xf6, 0xe7, 0xe5, 0xec, 0xef, 0xd1, 0xcb, 0xdd, 0xe4, 0x10, 0x1c, 0x16, 0x0d, 0xed, 0xe0, 0xde, 0xe1, 0xf0, 0xfb, 0x17, 0x21, 0x1e, 0x1b, 0xe8, 0xee, 0xe7, 0xf4, 0xf0, 0xf9, 0xe2, 0xfb, 0x0a, 0x13, 0xbb, 0xc7, 0xe5, 0xf3, 0x1c, 0xf5, 0x32, 0x13, 0x08, 0xf5, 0xdb, 0xe7, 0xe8, 0xef, 0x04, 0x12, 0xff, 0xf4, 0xf1, 0xed, 0x00, 0xff, 0x13, 0x07, 0x0f, 0x00, 0x06, 0xeb, 0xca, 0xd1, 0xdc, 0xea, 0xfe, 0xfc, 0x2f, 0x2f, 0x20, 0x28, 0xf0, 0xf6, 0xed, 0xe0, 0xef, 0xee, 0xe6, 0xfa, 0xfe, 0x0b, 0x10, 0x0a, 0x12, 0x1f, 0x1f, 0x1d, 0x0e, 0xf6, 0xdb, 0xdc, 0x0b, 0x00, 0xd7, 0xfd, 0x39, 0x20, 0x05, 0x06, 0x1b, 0x14, 0x0c, 0x09, 0xf8, 0xef, 0xed, 0xf4, 0x08, 0x21, 0x1a, 0x2e, 0x24, 0x29, 0x28, 0x0a, 0x1f, 0x00, 0xe6, 0xec, 0x1e, 0xff, 0xeb, 0x06, 0x37, 0x1e, 0x10, 0x0e, 0x12, 0x1d, 0x1a, 0x22, 0x07, 0xfa, 0x06, 0x14, 0x12, 0x21, 0x28, 0x3a, 0x32, 0x20, 0x23, 0x18, 0x0e, 0x04, 0x08, 0xfe, 0x0d, 0x04, 0x10, 0x0c, 0x2c, 0x2c, 0x20, 0x10, 0x0d, 0x27, 0x0c, 0x1c, 0x00, 0x0e, 0x14, 0x12, 0x20, 0x27, 0x24, 0x1e, 0x1f, 0x1f, 0x12, 0x0d, 0xfa, 0x09, 0x02, 0xe1, 0x0a, 0x0a, 0xfe, 0x08, 0x29, 0x2b, 0x22, 0x17, 0xfe, 0x02, 0x18, 0xfd, 0x0c, 0x0b, 0xfc, 0x18, 0x0b, 0x13, 0x25, 0x26, 0x21, 0x26, 0x1f, 0x16, 0x1e, 0x0a, 0x07, 0x14, 0xf8, 0xfd, 0x0f, 0x13, 0x40, 0x3d, 0x4e, 0x17, 0x0c, 0x09, 0x09, 0x20, 0x0a, 0x04, 0x08, 0x0f, 0xf8, 0x1b, 0x0b, 0x1a, 0x2c, 0x23, 0x1b, 0x14, 0x2e, 0x1a, 0x05, 0x3c, 0x0e, 0xf3, 0xfc, 0x04, 0x2d, 0x30, 0x18, 0x1e, 0x33, 0x13, 0x26, 0x24, 0x16, 0x1d, 0x10, 0x02, 0xfb, 0x08, 0x14, 0x17, 0x17, 0x2a, 0x2a, 0x32, 0x53, 0x25, 0xf2, 0xfb, 0x08, 0xf8, 0xf9, 0x2d, 0xe4, 0xfd, 0x14, 0x16, 0x18, 0x36, 0x2a, 0x17, 0x2c, 0x23, 0x17, 0x16, 0xfb, 0x0c, 0x1d, 0x1e, 0x30, 0x32, 0x43, 0x4a, 0x37, 0x45, 0x04, 0xdb, 0xfe, 0xf1, 0xfa, 0x04, 0x1d, 0x1e, 0x26, 0x22, 0x0d, 0xf2, 0x0d, 0x18, 0x19, 0x1b, 0x1a, 0x29, 0x0e, 0x10, 0x0d, 0x05, 0x02, 0x2c, 0x3c, 0x18, 0x2f, 0x14, 0xee, 0x0e, 0x06, 0x0c, 0x06, 0x03, 0x0d, 0x02, 0xee, 0xf9, 0xfa, 0xe5, 0x03, 0xf6, 0x24, 0x23, 0xf9, 0x1d, 0x10, 0xe4, 0xde, 0xe7, 0xd9, 0xf9, 0xf9, 0xee, 0xf3, 0xf3, 0xf4, 0xfa, 0x0d, 0x06, 0x0d, 0xf9, 0xfd, 0xf7, 0xf8, 0xfe, 0xfe, 0x09, 0xff, 0x08, 0x0d, 0xfd, 0x09, 0x04, 0x05, 0xf6, 0xf3, 0x00, 0xfd, 0x00, 0xfb, 0x0d, 0xfd, 0xf9, 0x03, 0xf1, 0x0e, 0xfc, 0x04, 0xf1, 0xf7, 0x08, 0xf1, 0x08, 0xfa, 0xf1, 0xfc, 0xf0, 0xf5, 0xee, 0x02, 0x23, 0x27, 0x28, 0x06, 0xfa, 0xf5, 0xf0, 0xfa, 0xee, 0xdc, 0x05, 0xfa, 0x04, 0xf1, 0x09, 0x09, 0x06, 0xf6, 0xf3, 0xfc, 0x04, 0xf7, 0xf5, 0xf1, 0xf1, 0x04, 0x04, 0x18, 0x04, 0x21, 0x15, 0xfa, 0xf5, 0xea, 0xc7, 0xe6, 0xcc, 0xef, 0x06, 0x21, 0x0b, 0x02, 0x03, 0x0f, 0xff, 0x08, 0xff, 0xe6, 0xeb, 0xe3, 0xfb, 0xf6, 0xf4, 0xe5, 0xf2, 0x00, 0xe3, 0xde, 0xf4, 0xdc, 0xdf, 0xd3, 0xcd, 0xe1, 0xcd, 0xe7, 0xde, 0x00, 0xf1, 0x00, 0xf2, 0x00, 0x14, 0xe3, 0xe7, 0x00, 0x04, 0xf2, 0xe4, 0xf4, 0x04, 0x01, 0x11, 0x1b, 0x2e, 0x19, 0x01, 0xfd, 0xde, 0xec, 0xe6, 0xec, 0xc5, 0xd1, 0xce, 0xef, 0xef, 0xe7, 0x0a, 0x02, 0xff, 0x09, 0xfb, 0xfa, 0xf2, 0xe9, 0xe1, 0xe7, 0xe4, 0xff, 0x19, 0x15, 0x21, 0x32, 0x19, 0x14, 0x14, 0x0b, 0x04, 0x0b, 0x05, 0xd9, 0xc6, 0xcd, 0xdb, 0xf1, 0xf1, 0x06, 0xdb, 0xe4, 0xf7, 0xe6, 0x03, 0xe3, 0xf1, 0xf0, 0xfe, 0x20, 0x0f, 0x10, 0x16, 0x0f, 0x1f, 0x11, 0x11, 0x02, 0x09, 0x0b, 0xfa, 0xeb, 0xbd, 0xca, 0xd7, 0xe6, 0xfe, 0x0b, 0x1b, 0x06, 0x10, 0xf5, 0xf2, 0xff, 0xed, 0xfa, 0x0a, 0x1e, 0x25, 0x1a, 0x0d, 0x12, 0x06, 0x0b, 0x0e, 0x17, 0x10, 0x10, 0x0f, 0xe5, 0xc1, 0xb5, 0xea, 0xf0, 0x07, 0x1c, 0x01, 0x0a, 0xfe, 0x07, 0x0c, 0x01, 0x03, 0x14, 0x19, 0x17, 0x32, 0x2a, 0x1f, 0x1d, 0x25, 0x1d, 0x22, 0x1f, 0x00, 0xfc, 0x0a, 0xed, 0xb6, 0xc7, 0x06, 0x16, 0x01, 0x16, 0xf4, 0x03, 0x16, 0x0f, 0x00, 0x0f, 0x11, 0x12, 0x19, 0x0f, 0x14, 0x14, 0x27, 0x21, 0x12, 0x18, 0x10, 0x14, 0x01, 0xfe, 0x05, 0xfd, 0xb6, 0xbe, 0xff, 0xe7, 0xff, 0x03, 0xf8, 0xd5, 0xf3, 0x06, 0x08, 0x0f, 0x02, 0x09, 0xf7, 0xf0, 0xfb, 0xf5, 0x09, 0x28, 0x12, 0x0f, 0x10, 0x07, 0x00, 0x02, 0xfc, 0xff, 0xbb, 0xaf, 0xe1, 0x19, 0x16, 0x16, 0xe4, 0xcb, 0xee, 0x02, 0xf6, 0x01, 0xe8, 0xe3, 0xdf, 0xce, 0xda, 0xec, 0x22, 0x28, 0xfd, 0xe7, 0xea, 0x0d, 0x12, 0x0a, 0x11, 0x0d, 0x02, 0xe3, 0x0e, 0x0e, 0x18, 0xfb, 0xfd, 0xc9, 0xd9, 0xdf, 0xba, 0xce, 0xda, 0xc1, 0xaa, 0xad, 0xcb, 0xec, 0x1a, 0x15, 0xfc, 0xec, 0xf1, 0x17, 0x0b, 0x1e, 0xfa, 0x0c, 0x31, 0x3a, 0x3d, 0x25, 0xfe, 0x16, 0x02, 0xcb, 0xb1, 0xb7, 0xa7, 0xbb, 0xb5, 0xd4, 0xbb, 0xcf, 0xd7, 0x11, 0x1b, 0x2e, 0x05, 0xfa, 0xe2, 0x02, 0xff, 0xfe, 0xf6, 0x06, 0x11, 0x4c, 0x54, 0x2d, 0x18, 0xe5, 0x06, 0xb4, 0xab, 0xa3, 0xb3, 0xb2, 0xc7, 0xc5, 0xdf, 0xdc, 0xf0, 0x30, 0x31, 0x36, 0xf6, 0xf1, 0xdb, 0xe9, 0xef, 0xe9, 0xe2, 0xf5, 0xf2, 0x30, 0x5a, 0x24, 0x14, 0xf5, 0x0d, 0xce, 0xd2, 0xce, 0xdb, 0xd9, 0xf6, 0xf7, 0xea, 0x03, 0x11, 0x36, 0x2c, 0x25, 0xeb, 0xe1, 0xe3, 0xd0, 0xda, 0xda, 0xdc, 0xd8, 0x07, 0x04, 0x36, 0x1a, 0x0d, 0xdd, 0x0a, 0xeb, 0xcd, 0xdc, 0xf1, 0xf9, 0x05, 0x1a, 0x21, 0x0a, 0x31, 0x28, 0x39, 0x17, 0xea, 0xe6, 0xe4, 0xdb, 0xe1, 0xf2, 0xdf, 0xfb, 0xf7, 0x26, 0x48, 0x2e, 0x0a, 0xf1, 0x05, 0xeb, 0xf1, 0xe7, 0xe5, 0xf5, 0x15, 0x1a, 0x25, 0x1c, 0x2d, 0x3c, 0x2b, 0xf3, 0xf9, 0xcf, 0xe7, 0xd3, 0xf4, 0xf1, 0xef, 0x01, 0x19, 0x39, 0x4e, 0x26, 0xeb, 0xf8, 0xf3, 0xe4, 0x01, 0xfd, 0xf0, 0x10, 0x1d, 0x2d, 0x29, 0x25, 0x21, 0x19, 0x0c, 0xee, 0xdf, 0xe9, 0xea, 0x00, 0xfc, 0x0d, 0xfa, 0x09, 0x3c, 0x4e, 0x3f, 0x24, 0x14, 0x19, 0xe8, 0xd8, 0xfe, 0xe5, 0xf1, 0x09, 0x1e, 0x2e, 0x1b, 0x13, 0x16, 0x16, 0x01, 0xfb, 0xee, 0xfc, 0xfe, 0x09, 0x15, 0xfe, 0x18, 0x14, 0x0f, 0x41, 0x51, 0x24, 0x09, 0x01, 0x00, 0xe4, 0x07, 0xfc, 0x09, 0x2d, 0x16, 0x11, 0x26, 0x1c, 0x02, 0x04, 0xff, 0x01, 0xfb, 0x09, 0x03, 0x13, 0x0b, 0x15, 0x14, 0x22, 0x1e, 0x18, 0x33, 0x0f, 0xfa, 0x12, 0x09, 0x00, 0x17, 0x1c, 0x2e, 0x27, 0x17, 0x27, 0x23, 0x09, 0x06, 0xf0, 0x0a, 0x0a, 0xf7, 0x03, 0x18, 0x26, 0x13, 0x20, 0x18, 0x1a, 0x1d, 0x32, 0x2b, 0x05, 0x0a, 0x06, 0xff, 0x06, 0x09, 0x4c, 0x4f, 0x2c, 0x1f, 0x1b, 0x0e, 0x01, 0x0c, 0x0c, 0x20, 0x0e, 0x0f, 0x10, 0x11, 0x13, 0x1b, 0x11, 0x03, 0x16, 0x10, 0x1f, 0xf1, 0xfd, 0x0c, 0x03, 0xec, 0xcb, 0xe0, 0x07, 0x22, 0x28, 0x19, 0x13, 0x1f, 0x14, 0x33, 0x1d, 0x1c, 0x18, 0x23, 0x28, 0x14, 0x1c, 0x24, 0x1d, 0x0b, 0xfe, 0xf9, 0x15, 0x13, 0xf9, 0x06, 0x01, 0xf1, 0xae, 0xca, 0xcf, 0xdc, 0xd1, 0xde, 0xe7, 0xeb, 0xf3, 0xfb, 0xf1, 0x0e, 0x00, 0xf4, 0xea, 0x0a, 0x07, 0x10, 0x03, 0xd9, 0xdf, 0x0d, 0x29, 0x0d, 0xf6, 0x05, 0x0f, 0xf0, 0x08, 0xd1, 0xa2, 0xc4, 0xac, 0xc8, 0xbe, 0xb3, 0xcb, 0xaf, 0xba, 0xc5, 0xd1, 0xbf, 0xcd, 0xce, 0xb2, 0xcb, 0xc2, 0xb5, 0xd6, 0xdf, 0xfa, 0x13, 0xf6, 0x06, 0xf9, 0xf1, 0xfb, 0xca, 0xc2, 0xc2, 0xc1, 0xd1, 0xd2, 0xc2, 0xd3, 0xc8, 0xb0, 0xb7, 0xa8, 0xb4, 0xa6, 0xbe, 0xa9, 0xb8, 0xce, 0xcf, 0xf3, 0xf8, 0x0f, 0x0f, 0xfa, 0x01, 0xff, 0x07, 0x0c, 0xf7, 0xf5, 0xfb, 0x0e, 0x0e, 0x00, 0xf8, 0xf9, 0xf3, 0xf9, 0xe5, 0xe8, 0x11, 0xfd, 0xdd, 0x00, 0xeb, 0xe3, 0xed, 0xff, 0xf9, 0xfe, 0x05, 0xfa, 0xaa, 0xfe, 0xff, 0xff, 0x04, 0x00, 0x00, 0x00, 0x20, 0x00, 0x00, 0x00, 0x4f, 0x07, 0x00, 0x00, 0x86, 0x29, 0x00, 0x00, 0x99, 0xdc, 0xff, 0xff, 0x00, 0x46, 0x00, 0x00, 0x31, 0xf4, 0xff, 0xff, 0xed, 0x11, 0x00, 0x00, 0x14, 0x2c, 0x00, 0x00, 0x74, 0xf2, 0xff, 0xff, 0xd6, 0xfe, 0xff, 0xff, 0x04, 0x00, 0x00, 0x00, 0x50, 0x00, 0x00, 0x00, 0xe9, 0x54, 0xc5, 0x15, 0x0c, 0x3a, 0xbe, 0x00, 0xf2, 0xb1, 0xd1, 0xf1, 0xc1, 0x8b, 0x50, 0x6d, 0x15, 0x61, 0x39, 0xcd, 0xbf, 0xcf, 0xdd, 0x42, 0x29, 0xdd, 0x23, 0xb8, 0x98, 0x2a, 0x50, 0xe2, 0x4f, 0x05, 0x16, 0x41, 0x1a, 0x82, 0xc5, 0xe5, 0x38, 0xd7, 0xab, 0xe8, 0x2d, 0x2b, 0x35, 0xd6, 0x92, 0x11, 0x4b, 0x81, 0x38, 0xa8, 0x20, 0xb4, 0xd1, 0xb2, 0x43, 0x1c, 0x90, 0x3b, 0x9d, 0x27, 0x23, 0x8e, 0x19, 0xb1, 0x31, 0x1a, 0xfd, 0x2a, 0x96, 0xd9, 0x49, 0x2f, 0xdb, 0xdb, 0x2e, 0xaf, 0x32, 0xff, 0xff, 0xff, 0x04, 0x00, 0x00, 0x00, 0x28, 0x00, 0x00, 0x00, 0x74, 0xfe, 0xff, 0xff, 0x77, 0x01, 0x00, 0x00, 0x3d, 0x00, 0x00, 0x00, 0x84, 0xfe, 0xff, 0xff, 0xbb, 0x00, 0x00, 0x00, 0x7a, 0x02, 0x00, 0x00, 0x01, 0x01, 0x00, 0x00, 0x0c, 0x02, 0x00, 0x00, 0x96, 0xfd, 0xff, 0xff, 0x3c, 0xff, 0xff, 0xff, 0x66, 0xff, 0xff, 0xff, 0x04, 0x00, 0x00, 0x00, 0x08, 0x00, 0x00, 0x00, 0xff, 0xff, 0xff, 0xff, 0x10, 0x03, 0x00, 0x00, 0x40, 0xfa, 0xff, 0xff, 0x44, 0xfa, 0xff, 0xff, 0x0f, 0x00, 0x00, 0x00, 0x4d, 0x4c, 0x49, 0x52, 0x20, 0x43, 0x6f, 0x6e, 0x76, 0x65, 0x72, 0x74, 0x65, 0x64, 0x2e, 0x00, 0x01, 0x00, 0x00, 0x00, 0x14, 0x00, 0x00, 0x00, 0x00, 0x00, 0x0e, 0x00, 0x18, 0x00, 0x14, 0x00, 0x10, 0x00, 0x0c, 0x00, 0x08, 0x00, 0x04, 0x00, 0x0e, 0x00, 0x00, 0x00, 0x14, 0x00, 0x00, 0x00, 0x1c, 0x00, 0x00, 0x00, 0x14, 0x01, 0x00, 0x00, 0x18, 0x01, 0x00, 0x00, 0x1c, 0x01, 0x00, 0x00, 0x04, 0x00, 0x00, 0x00, 0x6d, 0x61, 0x69, 0x6e, 0x00, 0x00, 0x00, 0x00, 0x04, 0x00, 0x00, 0x00, 0xd8, 0x00, 0x00, 0x00, 0x88, 0x00, 0x00, 0x00, 0x40, 0x00, 0x00, 0x00, 0x04, 0x00, 0x00, 0x00, 0x92, 0xff, 0xff, 0xff, 0x1c, 0x00, 0x00, 0x00, 0x00, 0x00, 0x00, 0x09, 0x1c, 0x00, 0x00, 0x00, 0x20, 0x00, 0x00, 0x00, 0x02, 0x00, 0x00, 0x00, 0x00, 0x00, 0x06, 0x00, 0x08, 0x00, 0x04, 0x00, 0x06, 0x00, 0x00, 0x00, 0x00, 0x00, 0x80, 0x3f, 0x01, 0x00, 0x00, 0x00, 0x09, 0x00, 0x00, 0x00, 0x01, 0x00, 0x00, 0x00, 0x08, 0x00, 0x00, 0x00, 0xca, 0xff, 0xff, 0xff, 0x14, 0x00, 0x00, 0x00, 0x00, 0x00, 0x00, 0x08, 0x10, 0x00, 0x00, 0x00, 0x14, 0x00, 0x00, 0x00, 0x01, 0x00, 0x00, 0x00, 0xfc, 0xfa, 0xff, 0xff, 0x01, 0x00, 0x00, 0x00, 0x08, 0x00, 0x00, 0x00, 0x03, 0x00, 0x00, 0x00, 0x07, 0x00, 0x00, 0x00, 0x03, 0x00, 0x00, 0x00, 0x02, 0x00, 0x00, 0x00, 0x00, 0x00, 0x0e, 0x00, 0x1a, 0x00, 0x14, 0x00, 0x10, 0x00, 0x0c, 0x00, 0x0b, 0x00, 0x04, 0x00, 0x0e, 0x00, 0x00, 0x00, 0x1c, 0x00, 0x00, 0x00, 0x00, 0x00, 0x00, 0x08, 0x1c, 0x00, 0x00, 0x00, 0x20, 0x00, 0x00, 0x00, 0x01, 0x00, 0x00, 0x00, 0x00, 0x00, 0x06, 0x00, 0x08, 0x00, 0x07, 0x00, 0x06, 0x00, 0x00, 0x00, 0x00, 0x00, 0x00, 0x01, 0x01, 0x00, 0x00, 0x00, 0x07, 0x00, 0x00, 0x00, 0x03, 0x00, 0x00, 0x00, 0x06, 0x00, 0x00, 0x00, 0x05, 0x00, 0x00, 0x00, 0x04, 0x00, 0x00, 0x00, 0x00, 0x00, 0x0a, 0x00, 0x0c, 0x00, 0x00, 0x00, 0x08, 0x00, 0x04, 0x00, 0x0a, 0x00, 0x00, 0x00, 0x08, 0x00, 0x00, 0x00, 0x0c, 0x00, 0x00, 0x00, 0x01, 0x00, 0x00, 0x00, 0x06, 0x00, 0x00, 0x00, 0x02, 0x00, 0x00, 0x00, 0x00, 0x00, 0x00, 0x00, 0x01, 0x00, 0x00, 0x00, 0x01, 0x00, 0x00, 0x00, 0x09, 0x00, 0x00, 0x00, 0x01, 0x00, 0x00, 0x00, 0x00, 0x00, 0x00, 0x00, 0x0a, 0x00, 0x00, 0x00, 0xa4, 0x04, 0x00, 0x00, 0x38, 0x04, 0x00, 0x00, 0xa8, 0x03, 0x00, 0x00, 0x3c, 0x03, 0x00, 0x00, 0xc0, 0x02, 0x00, 0x00, 0x54, 0x02, 0x00, 0x00, 0xd0, 0x01, 0x00, 0x00, 0x1c, 0x01, 0x00, 0x00, 0x80, 0x00, 0x00, 0x00, 0x04, 0x00, 0x00, 0x00, 0x9a, 0xfb, 0xff, 0xff, 0x00, 0x00, 0x00, 0x01, 0x18, 0x00, 0x00, 0x00, 0x20, 0x00, 0x00, 0x00, 0x3c, 0x00, 0x00, 0x00, 0x0a, 0x00, 0x00, 0x00, 0x00, 0x00, 0x00, 0x09, 0x50, 0x00, 0x00, 0x00, 0x02, 0x00, 0x00, 0x00, 0xff, 0xff, 0xff, 0xff, 0x0a, 0x00, 0x00, 0x00, 0x7c, 0xfb, 0xff, 0xff, 0x08, 0x00, 0x00, 0x00, 0x10, 0x00, 0x00, 0x00, 0x01, 0x00, 0x00, 0x00, 0x80, 0xff, 0xff, 0xff, 0xff, 0xff, 0xff, 0xff, 0x01, 0x00, 0x00, 0x00, 0x00, 0x00, 0x80, 0x3b, 0x19, 0x00, 0x00, 0x00, 0x53, 0x74, 0x61, 0x74, 0x65, 0x66, 0x75, 0x6c, 0x50, 0x61, 0x72, 0x74, 0x69, 0x74, 0x69, 0x6f, 0x6e, 0x65, 0x64, 0x43, 0x61, 0x6c, 0x6c, 0x3a, 0x30, 0x00, 0x00, 0x00, 0x02, 0x00, 0x00, 0x00, 0x01, 0x00, 0x00, 0x00, 0x0a, 0x00, 0x00, 0x00, 0x12, 0xfc, 0xff, 0xff, 0x00, 0x00, 0x00, 0x01, 0x18, 0x00, 0x00, 0x00, 0x20, 0x00, 0x00, 0x00, 0x3c, 0x00, 0x00, 0x00, 0x09, 0x00, 0x00, 0x00, 0x00, 0x00, 0x00, 0x09, 0x70, 0x00, 0x00, 0x00, 0x02, 0x00, 0x00, 0x00, 0xff, 0xff, 0xff, 0xff, 0x0a, 0x00, 0x00, 0x00, 0xf4, 0xfb, 0xff, 0xff, 0x08, 0x00, 0x00, 0x00, 0x10, 0x00, 0x00, 0x00, 0x01, 0x00, 0x00, 0x00, 0x2f, 0x00, 0x00, 0x00, 0x00, 0x00, 0x00, 0x00, 0x01, 0x00, 0x00, 0x00, 0xc2, 0x4b, 0x8a, 0x3e, 0x38, 0x00, 0x00, 0x00, 0x73, 0x65, 0x71, 0x75, 0x65, 0x6e, 0x74, 0x69, 0x61, 0x6c, 0x5f, 0x33, 0x2f, 0x64, 0x65, 0x6e, 0x73, 0x65, 0x5f, 0x37, 0x2f, 0x4d, 0x61, 0x74, 0x4d, 0x75, 0x6c, 0x3b, 0x73, 0x65, 0x71, 0x75, 0x65, 0x6e, 0x74, 0x69, 0x61, 0x6c, 0x5f, 0x33, 0x2f, 0x64, 0x65, 0x6e, 0x73, 0x65, 0x5f, 0x37, 0x2f, 0x42, 0x69, 0x61, 0x73, 0x41, 0x64, 0x64, 0x00, 0x00, 0x00, 0x00, 0x02, 0x00, 0x00, 0x00, 0x01, 0x00, 0x00, 0x00, 0x0a, 0x00, 0x00, 0x00, 0xaa, 0xfc, 0xff, 0xff, 0x00, 0x00, 0x00, 0x01, 0x18, 0x00, 0x00, 0x00, 0x20, 0x00, 0x00, 0x00, 0x3c, 0x00, 0x00, 0x00, 0x08, 0x00, 0x00, 0x00, 0x00, 0x00, 0x00, 0x09, 0x88, 0x00, 0x00, 0x00, 0x02, 0x00, 0x00, 0x00, 0xff, 0xff, 0xff, 0xff, 0x08, 0x00, 0x00, 0x00, 0x8c, 0xfc, 0xff, 0xff, 0x08, 0x00, 0x00, 0x00, 0x10, 0x00, 0x00, 0x00, 0x01, 0x00, 0x00, 0x00, 0x80, 0xff, 0xff, 0xff, 0xff, 0xff, 0xff, 0xff, 0x01, 0x00, 0x00, 0x00, 0xbd, 0xad, 0xc8, 0x3d, 0x52, 0x00, 0x00, 0x00, 0x73, 0x65, 0x71, 0x75, 0x65, 0x6e, 0x74, 0x69, 0x61, 0x6c, 0x5f, 0x33, 0x2f, 0x64, 0x65, 0x6e, 0x73, 0x65, 0x5f, 0x36, 0x2f, 0x4d, 0x61, 0x74, 0x4d, 0x75, 0x6c, 0x3b, 0x73, 0x65, 0x71, 0x75, 0x65, 0x6e, 0x74, 0x69, 0x61, 0x6c, 0x5f, 0x33, 0x2f, 0x64, 0x65, 0x6e, 0x73, 0x65, 0x5f, 0x36, 0x2f, 0x52, 0x65, 0x6c, 0x75, 0x3b, 0x73, 0x65, 0x71, 0x75, 0x65, 0x6e, 0x74, 0x69, 0x61, 0x6c, 0x5f, 0x33, 0x2f, 0x64, 0x65, 0x6e, 0x73, 0x65, 0x5f, 0x36, 0x2f, 0x42, 0x69, 0x61, 0x73, 0x41, 0x64, 0x64, 0x00, 0x00, 0x02, 0x00, 0x00, 0x00, 0x01, 0x00, 0x00, 0x00, 0x08, 0x00, 0x00, 0x00, 0x5a, 0xfd, 0xff, 0xff, 0x00, 0x00, 0x00, 0x01, 0x18, 0x00, 0x00, 0x00, 0x20, 0x00, 0x00, 0x00, 0x40, 0x00, 0x00, 0x00, 0x07, 0x00, 0x00, 0x00, 0x00, 0x00, 0x00, 0x09, 0x58, 0x00, 0x00, 0x00, 0x02, 0x00, 0x00, 0x00, 0xff, 0xff, 0xff, 0xff, 0x10, 0x03, 0x00, 0x00, 0x3c, 0xfd, 0xff, 0xff, 0x08, 0x00, 0x00, 0x00, 0x14, 0x00, 0x00, 0x00, 0x01, 0x00, 0x00, 0x00, 0x80, 0xff, 0xff, 0xff, 0xff, 0xff, 0xff, 0xff, 0x00, 0x00, 0x00, 0x00, 0x01, 0x00, 0x00, 0x00, 0x81, 0x80, 0x80, 0x3b, 0x1e, 0x00, 0x00, 0x00, 0x73, 0x65, 0x71, 0x75, 0x65, 0x6e, 0x74, 0x69, 0x61, 0x6c, 0x5f, 0x33, 0x2f, 0x66, 0x6c, 0x61, 0x74, 0x74, 0x65, 0x6e, 0x5f, 0x33, 0x2f, 0x52, 0x65, 0x73, 0x68, 0x61, 0x70, 0x65, 0x00, 0x00, 0x02, 0x00, 0x00, 0x00, 0x01, 0x00, 0x00, 0x00, 0x10, 0x03, 0x00, 0x00, 0x42, 0xfe, 0xff, 0xff, 0x00, 0x00, 0x00, 0x01, 0x14, 0x00, 0x00, 0x00, 0x30, 0x00, 0x00, 0x00, 0x06, 0x00, 0x00, 0x00, 0x00, 0x00, 0x00, 0x09, 0x44, 0x00, 0x00, 0x00, 0xac, 0xfd, 0xff, 0xff, 0x08, 0x00, 0x00, 0x00, 0x10, 0x00, 0x00, 0x00, 0x01, 0x00, 0x00, 0x00, 0x00, 0x00, 0x00, 0x00, 0x00, 0x00, 0x00, 0x00, 0x01, 0x00, 0x00, 0x00, 0xc2, 0xe1, 0xb6, 0x3b, 0x1b, 0x00, 0x00, 0x00, 0x73, 0x65, 0x71, 0x75, 0x65, 0x6e, 0x74, 0x69, 0x61, 0x6c, 0x5f, 0x33, 0x2f, 0x64, 0x65, 0x6e, 0x73, 0x65, 0x5f, 0x36, 0x2f, 0x4d, 0x61, 0x74, 0x4d, 0x75, 0x6c, 0x00, 0x02, 0x00, 0x00, 0x00, 0x08, 0x00, 0x00, 0x00, 0x10, 0x03, 0x00, 0x00, 0xaa, 0xfe, 0xff, 0xff, 0x00, 0x00, 0x00, 0x01, 0x14, 0x00, 0x00, 0x00, 0x34, 0x00, 0x00, 0x00, 0x05, 0x00, 0x00, 0x00, 0x00, 0x00, 0x00, 0x02, 0x58, 0x00, 0x00, 0x00, 0x14, 0xfe, 0xff, 0xff, 0x08, 0x00, 0x00, 0x00, 0x14, 0x00, 0x00, 0x00, 0x01, 0x00, 0x00, 0x00, 0x00, 0x00, 0x00, 0x00, 0x00, 0x00, 0x00, 0x00, 0x00, 0x00, 0x00, 0x00, 0x01, 0x00, 0x00, 0x00, 0x5c, 0x99, 0xb7, 0x37, 0x2b, 0x00, 0x00, 0x00, 0x73, 0x65, 0x71, 0x75, 0x65, 0x6e, 0x74, 0x69, 0x61, 0x6c, 0x5f, 0x33, 0x2f, 0x64, 0x65, 0x6e, 0x73, 0x65, 0x5f, 0x36, 0x2f, 0x42, 0x69, 0x61, 0x73, 0x41, 0x64, 0x64, 0x2f, 0x52, 0x65, 0x61, 0x64, 0x56, 0x61, 0x72, 0x69, 0x61, 0x62, 0x6c, 0x65, 0x4f, 0x70, 0x00, 0x01, 0x00, 0x00, 0x00, 0x08, 0x00, 0x00, 0x00, 0x22, 0xff, 0xff, 0xff, 0x00, 0x00, 0x00, 0x01, 0x14, 0x00, 0x00, 0x00, 0x30, 0x00, 0x00, 0x00, 0x04, 0x00, 0x00, 0x00, 0x00, 0x00, 0x00, 0x09, 0x44, 0x00, 0x00, 0x00, 0x8c, 0xfe, 0xff, 0xff, 0x08, 0x00, 0x00, 0x00, 0x10, 0x00, 0x00, 0x00, 0x01, 0x00, 0x00, 0x00, 0x00, 0x00, 0x00, 0x00, 0x00, 0x00, 0x00, 0x00, 0x01, 0x00, 0x00, 0x00, 0x62, 0xa3, 0x0f, 0x3c, 0x1b, 0x00, 0x00, 0x00, 0x73, 0x65, 0x71, 0x75, 0x65, 0x6e, 0x74, 0x69, 0x61, 0x6c, 0x5f, 0x33, 0x2f, 0x64, 0x65, 0x6e, 0x73, 0x65, 0x5f, 0x37, 0x2f, 0x4d, 0x61, 0x74, 0x4d, 0x75, 0x6c, 0x00, 0x02, 0x00, 0x00, 0x00, 0x0a, 0x00, 0x00, 0x00, 0x08, 0x00, 0x00, 0x00, 0x8a, 0xff, 0xff, 0xff, 0x00, 0x00, 0x00, 0x01, 0x14, 0x00, 0x00, 0x00, 0x30, 0x00, 0x00, 0x00, 0x03, 0x00, 0x00, 0x00, 0x00, 0x00, 0x00, 0x02, 0x54, 0x00, 0x00, 0x00, 0xf4, 0xfe, 0xff, 0xff, 0x08, 0x00, 0x00, 0x00, 0x10, 0x00, 0x00, 0x00, 0x01, 0x00, 0x00, 0x00, 0x00, 0x00, 0x00, 0x00, 0x00, 0x00, 0x00, 0x00, 0x01, 0x00, 0x00, 0x00, 0x40, 0x32, 0x61, 0x3a, 0x2b, 0x00, 0x00, 0x00, 0x73, 0x65, 0x71, 0x75, 0x65, 0x6e, 0x74, 0x69, 0x61, 0x6c, 0x5f, 0x33, 0x2f, 0x64, 0x65, 0x6e, 0x73, 0x65, 0x5f, 0x37, 0x2f, 0x42, 0x69, 0x61, 0x73, 0x41, 0x64, 0x64, 0x2f, 0x52, 0x65, 0x61, 0x64, 0x56, 0x61, 0x72, 0x69, 0x61, 0x62, 0x6c, 0x65, 0x4f, 0x70, 0x00, 0x01, 0x00, 0x00, 0x00, 0x0a, 0x00, 0x00, 0x00, 0x00, 0x00, 0x16, 0x00, 0x1c, 0x00, 0x18, 0x00, 0x17, 0x00, 0x10, 0x00, 0x0c, 0x00, 0x08, 0x00, 0x00, 0x00, 0x00, 0x00, 0x00, 0x00, 0x07, 0x00, 0x16, 0x00, 0x00, 0x00, 0x00, 0x00, 0x00, 0x01, 0x18, 0x00, 0x00, 0x00, 0x18, 0x00, 0x00, 0x00, 0x02, 0x00, 0x00, 0x00, 0x00, 0x00, 0x00, 0x02, 0x30, 0x00, 0x00, 0x00, 0x04, 0x00, 0x04, 0x00, 0x04, 0x00, 0x00, 0x00, 0x1c, 0x00, 0x00, 0x00, 0x73, 0x65, 0x71, 0x75, 0x65, 0x6e, 0x74, 0x69, 0x61, 0x6c, 0x5f, 0x33, 0x2f, 0x66, 0x6c, 0x61, 0x74, 0x74, 0x65, 0x6e, 0x5f, 0x33, 0x2f, 0x43, 0x6f, 0x6e, 0x73, 0x74, 0x00, 0x00, 0x00, 0x00, 0x01, 0x00, 0x00, 0x00, 0x02, 0x00, 0x00, 0x00, 0x00, 0x00, 0x16, 0x00, 0x20, 0x00, 0x1c, 0x00, 0x1b, 0x00, 0x14, 0x00, 0x10, 0x00, 0x0c, 0x00, 0x00, 0x00, 0x00, 0x00, 0x08, 0x00, 0x07, 0x00, 0x16, 0x00, 0x00, 0x00, 0x00, 0x00, 0x00, 0x01, 0x18, 0x00, 0x00, 0x00, 0x34, 0x00, 0x00, 0x00, 0x50, 0x00, 0x00, 0x00, 0x01, 0x00, 0x00, 0x00, 0x00, 0x00, 0x00, 0x09, 0x6c, 0x00, 0x00, 0x00, 0x04, 0x00, 0x00, 0x00, 0xff, 0xff, 0xff, 0xff, 0x1c, 0x00, 0x00, 0x00, 0x1c, 0x00, 0x00, 0x00, 0x01, 0x00, 0x00, 0x00, 0x0c, 0x00, 0x0c, 0x00, 0x00, 0x00, 0x00, 0x00, 0x08, 0x00, 0x04, 0x00, 0x0c, 0x00, 0x00, 0x00, 0x08, 0x00, 0x00, 0x00, 0x10, 0x00, 0x00, 0x00, 0x01, 0x00, 0x00, 0x00, 0x80, 0xff, 0xff, 0xff, 0xff, 0xff, 0xff, 0xff, 0x01, 0x00, 0x00, 0x00, 0x81, 0x80, 0x80, 0x3b, 0x21, 0x00, 0x00, 0x00, 0x73, 0x65, 0x72, 0x76, 0x69, 0x6e, 0x67, 0x5f, 0x64, 0x65, 0x66, 0x61, 0x75, 0x6c, 0x74, 0x5f, 0x66, 0x6c, 0x61, 0x74, 0x74, 0x65, 0x6e, 0x5f, 0x33, 0x5f, 0x69, 0x6e, 0x70, 0x75, 0x74, 0x3a, 0x30, 0x00, 0x00, 0x00, 0x04, 0x00, 0x00, 0x00, 0x01, 0x00, 0x00, 0x00, 0x1c, 0x00, 0x00, 0x00, 0x1c, 0x00, 0x00, 0x00, 0x01, 0x00, 0x00, 0x00, 0x03, 0x00, 0x00, 0x00, 0x44, 0x00, 0x00, 0x00, 0x24, 0x00, 0x00, 0x00, 0x04, 0x00, 0x00, 0x00, 0xf0, 0xff, 0xff, 0xff, 0x19, 0x00, 0x00, 0x00, 0x02, 0x00, 0x00, 0x00, 0x00, 0x00, 0x00, 0x19, 0x0c, 0x00, 0x10, 0x00, 0x0f, 0x00, 0x00, 0x00, 0x08, 0x00, 0x04, 0x00, 0x0c, 0x00, 0x00, 0x00, 0x09, 0x00, 0x00, 0x00, 0x04, 0x00, 0x00, 0x00, 0x00, 0x00, 0x00, 0x09, 0x0c, 0x00, 0x0c, 0x00, 0x0b, 0x00, 0x00, 0x00, 0x00, 0x00, 0x04, 0x00, 0x0c, 0x00, 0x00, 0x00, 0x16, 0x00, 0x00, 0x00, 0x00, 0x00, 0x00, 0x16
};
const int mnist_quantized_model_tflite_len = 8760;

#endif // MNIST_MODEL_DATA_H_
