/*
 * This file is auto-generated by generate_c_model_params.py.
 * Do not modify manually.
 */
#include "mnist_model_params.h"

// Layer 1 Parameters
const uint32_t L1_weights[1568] = {
    0xF50505F5, 0x0AF7FD0E, 0x0DFBFE0E, 0x011018FB, 0xFF0F0EFF, 0x060505FB, 0xF60A0F0E, 0xFB09FE0A, 0xF713120D, 0x0506070F, 0x00F8F2FC, 0x24140C0E, 0x0FE12221, 0xF7F80E0E, 0xF907F8F8, 0xF402FE05, 0x051E0F34, 0x1B030DFB, 0x1B301A0A, 0xFBE5DCEF, 0x061B0AFB, 0xFC04F907, 0x071E2528, 0x48434F4F, 0x5749312C, 0x292E2D29, 0x2F0EE8E7, 0x101D1AF4, 0x080F0613, 0x0B2D393E, 0x27383A27, 0x211B0A0A, 0x0C18100C, 0xFFF5F700, 0x0E1A1F0A, 0xFD08FA1B, 0x2B281F17, 0x1F131D11, 0x140B020B, 0x0A0F0907, 0xFEFE09F7, 0x1D29011B, 0x0608112F, 0x24181812, 0x0E1C2515, 0x181C1B19, 0x0D070B08, 0xFF05F9F7, 0x1A1E2624, 0xF01D0A0F, 0x27240307, 0x140E0C1F, 0x1F1E2611, 0x17170616, 0x08FFFDDE, 0xFB2E0C1D, 0xF2251111, 0x11FC0502, 0x0512151B, 0x10143119, 0x0A1A040E, 0x101106F9, 0xFA202328, 0x061F1719, 0x20020B0D, 0xFCFEF402, 0xFEFF252F, 0x0B000304, 0x020710F0, 0x0F2DFE11, 0x11132D41, 0x0600F8EF, 0xF1E0D9D0, 0xD9F30407, 0x13F7F1D5, 0xF1D5E2C1, 0xD4080B0A, 0x070A182D, 0x0FFDE5D3, 0xC7CAD2DF, 0xD6DFE0E9, 0xE905FFEF, 0xD7BDACA5, 0xA3EB16F5, 0xF511230C, 0xE9E2BECF, 0xE3D1F7E6, 0xE3E4E7F0, 0xF9FC12FB, 0xF8D2B38D, 0xA5DFFBF0, 0xEA08030F, 0xE3CECBD6, 0xE9FBF1EE, 0xF402FEEB, 0xFA050D05, 0xFBECCDC1, 0xB907FD03, 0x1D041210, 0xF3C7E4FD, 0x09080CEB, 0xEF09FFE9, 0xF5FC0FFF, 0x0905FDFC, 0x070E39FB, 0x2411151E, 0xF9EEF5E8, 0x02FDFCFE, 0xFB01FBF3, 0xFDFE0D0A, 0x1B0F0D0B, 0x28322520, 0x19202047, 0x1713FBD1, 0xD2F0FAFD, 0x10F9F2F1, 0xEA121E1E, 0x131A3320, 0x38404A30, 0x041D1362, 0x3B1BFCE1, 0xCBC7E4E5, 0xE3E6E2F6, 0xF817121F, 0x0B202B15, 0x194A2C20, 0x1E0C0458, 0x3D241500, 0xEBD9CECC, 0xD3F5F811, 0x24281B24, 0x1F24281D, 0x2B3D2114, 0xF01C0548, 0x3B252413, 0x03FDF6F9, 0xF70B1319, 0x131E230F, 0x1115100D, 0x2F4B2511, 0xFC0EFC4D, 0x31291D1A, 0x1F241912, 0x0E081A08, 0x1C0E140F, 0x1A0A0808, 0x2827211C, 0xFF11343C, 0x30120510, 0x0D0B0D10, 0x0F020416, 0x0D140F1D, 0x06FD0114, 0x161F2206, 0xFCF82B26, 0x1BFD0D03, 0x0E110607, 0x03FEFA02, 0x0E060C1A, 0x0AFB1622, 0x161803F2, 0x07F4214B, 0x47341F16, 0x03041703, 0xF8F2F9F2, 0xECF6FD08, 0xF80C0E20, 0x342A31F3, 0x00FB024A, 0x504C3F32, 0x26151813, 0x071B0800, 0x060EE6EA, 0xE5102405, 0x31121DFB, 0xF5020C12, 0x2F3D4B50, 0x4C51423C, 0x41371B1D, 0x131A1119, 0xFCFC1911, 0x27FB00F2, 0x0CFDFFE1, 0xFEEF0728, 0x2B242825, 0x28402E4B, 0x383D1930, 0x160502F3, 0x1109050C, 0x09010206, 0x02180C1F, 0x2725393A, 0x293B191F, 0x281C1310, 0xE9E6EAF9, 0xFC0000F5, 0x0B0CFDF4, 0xF9FC0A07, 0xF50AFE01, 0xFCF000F4, 0xF3F9F405, 0x060C08F5, 0x070CF908, 0x0C0701FD, 0x03FDE8F8, 0x0A0F0D1D, 0x0CFAF5DD, 0xDBFE18FA, 0xFAF5EED4, 0xF90E0C04, 0xF1F9F608, 0xFD0FFC0E, 0x13F9090B, 0xF9F400EF, 0xDA0D1027, 0x280F0EF6, 0xDFF3FDF2, 0xF3F3E0FB, 0x26132007, 0x03ECF90C, 0xF8F60DF9, 0xFF112639, 0x2B323B3F, 0x190F270B, 0x06FFE302, 0x2E0CFD1F, 0xFE070204, 0x04F4F9FD, 0x0516171B, 0x201C2544, 0x461BE800, 0xF50EECFB, 0x060D031B, 0x17201901, 0x07F1FCFD, 0xF2FEFC01, 0xFDFCF90E, 0x1A1F2123, 0xFBFE0EF4, 0x15132121, 0x12260D1A, 0x0B0B10FB, 0x0A0C0008, 0x00F40206, 0x2C241519, 0x0B04E905, 0xED0E0520, 0x171E1908, 0x0401031A, 0x1513FEEF, 0xF3F7F219, 0x2C321605, 0xE7E8E4F2, 0xF90E0B0B, 0x070CF9FC, 0xEEEDFFEF, 0xF7EAF9FE, 0xF80AF8FE, 0x3726F8EE, 0xE5F5FFEC, 0xE1EE0003, 0x03F0E1ED, 0xEEE7DCD7, 0xD8EBFDF5, 0x1D11FF0D, 0x3D3D0912, 0xE4E6D9E3, 0xE8D7F6F4, 0xF40EFE04, 0xF5F9E5DF, 0xEEF4FDFF, 0x0D16F7F5, 0x363F06F5, 0xECD3C5E4, 0xE8F40417, 0x2A222323, 0x2208ECFC, 0x1A271A15, 0x0D03F2E9, 0x0A0DFB05, 0x04DEDADC, 0xF7162A46, 0x33302C43, 0x341AFD17, 0x302A2309, 0x14F7FEF2, 0xD1D7DCF1, 0xF8F6D0E8, 0x2D3D3A37, 0x281D3F2B, 0x23100218, 0x313A262A, 0x1D160E03, 0xDFC8CBD9, 0xFD00E70B, 0x2E2F2424, 0x312F2D35, 0x20FCEF15, 0x272B311A, 0x31271D19, 0xE7D2BCD4, 0x151B16F8, 0x0C11FF15, 0x241C3730, 0x1BFDF0FD, 0x2C2E2A29, 0x2D303715, 0xEECDBCD8, 0xF60FEECD, 0xECE9FA07, 0x261A0C13, 0x08F8F3FB, 0x0D30212B, 0x27091B01, 0xEAB0AED0, 0x0510FCDD, 0xE1EBE002, 0x12010212, 0xF3ECEAF3, 0x1B211E1F, 0x1F1C0616, 0xD8C3CFDB, 0xEA07F8E7, 0xECDFEFF0, 0xFCF7F805, 0xEEE3ED0B, 0x1814121B, 0x1216F1E3, 0xC9C0D9EA, 0xF8FC0F25, 0xF6FDFDEA, 0xF0EBEBF5, 0xEDE601FB, 0x0F171E09, 0x0700E0E9, 0xE1BEDBF3, 0xF70E0A04, 0xFBF8DED4, 0xEAF0E8F1, 0x06FB1917, 0x100FFFF9, 0xF8EDE0DA, 0xC8DAE0FD, 0xEA0800F4, 0x02DDD5EA, 0xEDEEF605, 0x041A1A12, 0x210708F3, 0xF0FCE4CF, 0xD9D7F810, 0xF10CFFEE, 0xE9D6D1E6, 0xF1EBF603, 0x162C1120, 0x0DF9FAEF, 0xE7D9E2EC, 0xEAE51906, 0x020AFE40, 0xFAF0FA06, 0x05011016, 0x090E1204, 0x02F8E5D5, 0xEAE1DCDD, 0xDEFE03FD, 0x01080C44, 0x3D282637, 0x271E2324, 0x0E210506, 0x0A01FBF3, 0x0AEBFC0C, 0xD0CDDA0B, 0x07090A2A, 0x414B333A, 0x3E414335, 0x262B1713, 0x1C18212F, 0x3C403A40, 0x00EFF40B, 0xF5F30E0C, 0x211F1E08, 0xF1FC0001, 0x18112609, 0xFF02F801, 0x2D1A061F, 0xEAF403FE, 0x04080507, 0xF2FFFDF4, 0xD4D8DEEF, 0xF8C4CCD5, 0xC4B8E5E6, 0x07F2E3DF, 0x060CFFF4, 0xF4F3020C, 0x0200F903, 0xF8F707F9, 0x0E170EF5, 0xF40BF6F3, 0xFCF2FB0C, 0xF20F0501, 0x07FE0AF8, 0x0E142C1E, 0x1C232C44, 0x51300845, 0x27373019, 0x28163216, 0x0907FEFF, 0xF409020A, 0x0D1F2733, 0x2F2F624B, 0x6146494B, 0x481A2A21, 0x232A302F, 0x0101FB0D, 0xF7F4032B, 0x1D1D4A2F, 0x4544584A, 0x5C574855, 0x2F26201B, 0x07FF0015, 0x1BEDEB08, 0x0803241A, 0x15333926, 0x553A4E2A, 0x35404A2F, 0x2E1D220F, 0x10FAE0DE, 0xB9011819, 0xF604081B, 0x291C2623, 0x25131B0A, 0x0B101A27, 0x140A0812, 0x0005F9D8, 0xE80118FB, 0x0307E906, 0x16F91106, 0x060F0E1A, 0x1306060E, 0x180D0A08, 0x04FAECE6, 0xF213FFF7, 0x082C01FA, 0x19FBFD0D, 0x01FFF8F0, 0x08090313, 0x06FDF1FC, 0x05F308ED, 0xEF020200, 0xEE16EA1A, 0x34FF0E00, 0xF3F800E5, 0x04030A05, 0xF9FEF7FA, 0xEDEAF9E4, 0xE9F21B1B, 0xF9EFFD22, 0x3B0E0611, 0xF6E7EAE0, 0xDDEC0709, 0xE1F3E0EE, 0x0405F9E8, 0xCCF021EE, 0x09FBFA10, 0x23FF0801, 0xEBE8DBD8, 0xDEF40DFE, 0xE8E707F9, 0xF7F90B08, 0xDAD1F904, 0xF41D061E, 0x02F7F6F7, 0xE1E8E2DF, 0xF0162106, 0xF2F4FE12, 0x25122530, 0x2C050909, 0x05EDDF0A, 0x01EEDEE5, 0xE5F8D7DF, 0xE7263915, 0x040A13FC, 0x1617113D, 0x3D1A180E, 0x0EF6DF02, 0xD8CBE2DC, 0xE7EDE7E9, 0x0736351F, 0x22FC0006, 0xFEED0223, 0x3B221E2A, 0xF9F9E1EC, 0xB5D1D9D7, 0xF6EBF4FB, 0x11362C27, 0x05EEFDF7, 0xF10BF70F, 0x25273E1A, 0xEAFFE714, 0xEAE204F4, 0xFEEEF619, 0x21274124, 0xF3F6F107, 0x0D091106, 0x0F2CFA17, 0x00122938, 0x170FFAF1, 0xFA052217, 0x1B3624F5, 0xE2ECFBF8, 0xEAFFFE16, 0x2B200E1A, 0x0119FE2B, 0x1FE8ED07, 0x10112928, 0x2420FCD7, 0xE5F5F817, 0x040C0D12, 0x0707050C, 0xF1180430, 0x0300EAF4, 0x0C131E16, 0x0AFFECDF, 0x010D1613, 0x07091122, 0x0B2FFF0A, 0xF9ECEA15, 0xFAF4E500, 0x0E151216, 0x0FFE0D05, 0x27242C15, 0x19101F25, 0x0E1A1422, 0x0503E914, 0x04051524, 0x18221014, 0x0D0F1B20, 0x2117282A, 0x291B140B, 0xF5FF0EFC, 0x170A1F27, 0x100B1D29, 0x0F0A150F, 0x162E331A, 0x251A1A11, 0x07EEF0F3, 0xE207DD07, 0x1AFE2716, 0x1C253126, 0x08031114, 0x08141C0F, 0x0A0D0E00, 0xFEF3EDD4, 0xD8EEFBEF, 0x0E0C2D11, 0x0D081410, 0x091C00FD, 0x180F0E18, 0xFD050C00, 0xF5EEDDF5, 0xE5F30C01, 0xFB030B11, 0xF4EFF8F4, 0x0A15FE11, 0x14110B0B, 0x1208FC03, 0xFFEEEBE3, 0x031310F3, 0xFB0500DC, 0xD1CEFBED, 0x0AF7FC0C, 0x030100ED, 0xFE060A09, 0xFECADAD3, 0xEEF50EF6, 0x0EFDFBEE, 0xEED7D4F8, 0xDFE5D9D9, 0xB6C9BFCF, 0xDFECFFFF, 0xE5C5E901, 0x0AFAF1F9, 0xFDF3F900, 0xF5100905, 0x0407EB03, 0xE2F3041A, 0x0805DE04, 0xF9EEE603, 0x020C0C0E, 0xF3FEFEF2, 0x01F90DFC, 0x020309F4, 0xF00213FB, 0xF1F8F506, 0x0201FDF7, 0x0CFEFB0E, 0xFB0102F8, 0xFAF7D8E1, 0xD6E3D9C9, 0xBDB90CF8, 0xF1C9C9CF, 0xE0E1EAE0, 0xFDFB0303, 0xFA0E09E4, 0xE8D6D9C6, 0xB0C5B6A8, 0xBDD4D0F0, 0xDEBCC4BF, 0xBBB7D4D6, 0xF3F4F3F3, 0xFB0213E1, 0xCEFFD4BE, 0xAAAFABAB, 0xCCD2C8CC, 0xEDE4C4CF, 0xD4BFDCE3, 0xE0FAE007, 0xF8FD1D1A, 0x171AFEEE, 0xF6FBF10A, 0x0412F3F0, 0xE9E7F2F5, 0xFAF4F0D7, 0xE4E900F5, 0xFC051E28, 0x29291B1A, 0x05090905, 0x09100C0C, 0xF2E1E3F2, 0xD9E7DFEA, 0xECF4F504, 0x0DFD0740, 0x2C342C19, 0x1E0F241F, 0x24151722, 0x2B160EFF, 0xFEF4DDDA, 0xD9F200F6, 0x0A012C5D, 0x3D332225, 0x1F2C1B22, 0x17240E1E, 0x1917190D, 0x14F8FCDA, 0xC9D819EF, 0xE1132133, 0x491F2D1C, 0x1C201D05, 0x191A181A, 0x16251A18, 0x0C0A04C8, 0xB5E6FEF3, 0x10362136, 0x423D2026, 0x0C0A0CFF, 0x13092832, 0x282E2326, 0x150802D1, 0x9FC0F506, 0x1C1A2D40, 0x28151306, 0xF90CF4FF, 0xDF090D25, 0x302E3034, 0x2B291DC1, 0x9198D413, 0x1A263E36, 0x2D20F80A, 0xFEFEFFF5, 0xDAE00E36, 0x2C473E34, 0x47343FCA, 0x8EB0E30C, 0x12264335, 0x2BFFEB00, 0x050AFBF9, 0xE1C11B27, 0x362F2E2C, 0x343B33F2, 0xC2FF0626, 0x10144520, 0x130403F0, 0x0405EDE1, 0xC7EA173C, 0x3D3A2320, 0x2417EFCF, 0xD020311A, 0xF61C2F19, 0x20FBFDFA, 0xF8ECE5F1, 0xDAFF272B, 0x2A46412F, 0x13FEE9D4, 0xCA2C3D31, 0xE1F90E08, 0x1CF8F4F5, 0xF0E4DFE7, 0xEE01202E, 0x2B402B21, 0x171215F4, 0xE1F42729, 0x09F81007, 0x12F2F40F, 0x0DF105F6, 0xFF211929, 0x2B2E230C, 0x0103FEF5, 0xDADA2126, 0xF7180106, 0x08EDE3FB, 0x08040800, 0x10372312, 0x1E1102FE, 0xF5F7F8FB, 0xF41237FE, 0x28102306, 0x09ECCFED, 0xEFF3EFF8, 0xF3081107, 0xF9F80003, 0x0104F9DF, 0xCAFE1501, 0x0C0EFC10, 0xEEDEEDE8, 0xDAF0E6CF, 0xE7F6EAEF, 0xE9EEF5FA, 0xF2FCD1DC, 0xE6031916, 0xFBF3F205, 0xFCDFE5F4, 0xF4DDE0E7, 0xDEF6FBE9, 0xF6F3EBEF, 0xF5F2E1E0, 0xEB0416F2, 0xFC11FFE4, 0xFCE9E7EF, 0xF6F5F6ED, 0xE6E8F7EF, 0xF7EAE8F7, 0xE8EAD1D3, 0xF5FCE50B, 0x0D0A05F4, 0xDE0D0A0B, 0xF7F503F8, 0xE9F10702, 0xFBFDF7F5, 0xEADEEFE5, 0xFE02E0FA, 0xFD02E5E8, 0xFFF8160A, 0x00FA09FE, 0x000300FD, 0xF90800F2, 0xDEEDFEEB, 0x0305F605, 0xF903F6DF, 0x1B272428, 0x100B0F10, 0x0B030315, 0x0DFAF4F1, 0x030BF7FA, 0xFCEA1508, 0x0F03EDF1, 0x0F2E2632, 0x3C353236, 0x231A2919, 0x0F110A05, 0x1106E7F7, 0xE5FC0104, 0x0004F30A, 0x01083851, 0x503F391D, 0x26263831, 0x322E4122, 0x08100FF9, 0x1506FFF4, 0xF803F307, 0x0F0A1220, 0x2E1B2210, 0x22453929, 0x3F3A3C34, 0x1C222527, 0xF30EFEFD, 0x09F20D09, 0xF80909F7, 0x0409F404, 0xF8040504, 0x060406F8, 0xF8F10208, 0x0CF6F30E, 0xF204F7F8, 0x0A03261C, 0x130A2112, 0x0919130F, 0xEFEF2824, 0x1E1C281F, 0xFE09FAFE, 0x03F7FBF1, 0x07052025, 0x272E2932, 0x3732322E, 0x1B2A203B, 0x28333414, 0xF6E2F2F7, 0x040A1407, 0x00FB2732, 0x18281B0C, 0x0E011D0D, 0x0E062F19, 0x1E272328, 0x1FE70DF4, 0xF3080FEB, 0xFF031312, 0x0F0E0DF6, 0xF8F709F8, 0x0A0B0C16, 0x251E2C39, 0x16F21723, 0xF80F15D5, 0xF802E102, 0xFE030B07, 0x150CF3FE, 0xDBE4E7F8, 0x0C121943, 0x33222116, 0xF9E9DDC9, 0xE2CADCF2, 0xEEFB0C1E, 0x1D191C24, 0x14150803, 0x04E9E60C, 0x3D29311D, 0xFDD2D8BD, 0xB3BAD2DF, 0xF5F70814, 0x28264029, 0x2F140508, 0x0503FBF3, 0x2017221D, 0xD8E2DBCB, 0xBBD3E6F9, 0xFC09020C, 0x0A13130E, 0xFFFDF9F6, 0xEFF9E5DE, 0xFA14201B, 0xFBEFD2D0, 0xC2EBFC0B, 0x0F0A140F, 0x11F506E9, 0xCADEE1DD, 0xE8F8F8DF, 0x022208E4, 0xF2E0BFB3, 0xD1F90D0B, 0x12061910, 0x02FEF9D0, 0xBFD4E9EC, 0xE8E0EF00, 0x000F0BE2, 0xF4D8ABC2, 0xE6211811, 0x09110C06, 0x00FB0CF5, 0xD3E6F4F0, 0xF803F511, 0x0CF7E306, 0xFBD8AAD4, 0x02191A00, 0x060104F7, 0xFA16341F, 0x02061117, 0x05130815, 0xFEF5BBF2, 0x17D1BDF4, 0xFF0D0D04, 0x0B08F1F0, 0x013F4533, 0x14222526, 0x16160409, 0xE8D0B2F5, 0xE4E2DB01, 0x0DFF08EF, 0xFE1009FC, 0x103A4E2C, 0x1A19FFFE, 0xF9F7EAE2, 0xDEF2B9F5, 0xF506CEFE, 0xFBFBFBFC, 0x04F2FF14, 0x22433815, 0x1E1404F0, 0xE0EAECE9, 0xE0F8D2DE, 0xE7F4EB0D, 0xF1F6F9F2, 0xF3000C17, 0x18232D0C, 0x0002F2F3, 0xEEECDCF1, 0xF9F4CEDE, 0xFD0CFAFC, 0xD5F00504, 0x03060F19, 0x22191702, 0x0EFDF7F9, 0x01F3F6FE, 0xEEE2D3CF, 0x09F3F8EB, 0xE0E501F5, 0xFC001D14, 0x1217150F, 0x0B151806, 0x03FCFA05, 0xEDEBE6D8, 0x01D800FB, 0xD7DFE5F7, 0xED010A12, 0x1C070F20, 0x08090A1B, 0x1A070619, 0xFBE8DE08, 0xF3E9ECFE, 0xD3CEF001, 0xF90A1405, 0x01080711, 0x1D1E0E1A, 0x17100612, 0x0C09FB17, 0x1401F003, 0x0000F3FA, 0x1C080C00, 0x051C110E, 0x1A121E1E, 0x231E090B, 0x17FBCEF3, 0x0118070B, 0x3105F1E3, 0xFA03F8E9, 0xECEB0001, 0xF8161906, 0x11160B1C, 0x240712F8, 0x0508F212, 0x13310AF4, 0xFDECF0E9, 0xF2EFF4EA, 0x08FFFE11, 0x2E2B3725, 0x12EE1D08, 0xFCF804D0, 0xDA0AFF13, 0x151007FB, 0x02F2EFF3, 0xF50F2D2D, 0x38483054, 0x1006E10C, 0x0E0718E4, 0xF5140610, 0x0B11211F, 0x23130B0E, 0x122B272D, 0x49432B3D, 0x1CF9DF0C, 0x04FD031B, 0x2B2E2A27, 0x201D2812, 0x282A3721, 0x21081803, 0x3F230022, 0x12F106F2, 0xF8FE0CFF, 0x04EBEEFD, 0xECEFE8FC, 0xF8C702E9, 0xD8C4DBEF, 0x080B06FF, 0x0E0C0705, 0x09060807, 0xFAF702F5, 0x0FFBF70B, 0xF7F205FB, 0xF9F3F70A, 0x0DF703F5, 0xF5F6F7FF, 0x0D0AF707, 0xF6FA05F7, 0x00FAEF0D, 0x11040B03, 0x140CC9E1, 0xF503F5F4, 0x03FF05F2, 0xF909F307, 0x1200EDF6, 0xE2CDBCBF, 0xC0D1CDC0, 0xDFD9E9EB, 0xF6D9E1E4, 0xDCDD03F6, 0xFA00EDEB, 0xF408EBDB, 0xE4DFD3E1, 0xEFF3FEF9, 0xEBEEF0FE, 0x01F3FEEB, 0xED0BF20D, 0xF9FB0417, 0xEBD8E4ED, 0xF3F5F514, 0x0A0F081B, 0x020E05F2, 0xE4FFF2E8, 0x141F14FD, 0x0703F810, 0xD3DEF6EF, 0xF002010B, 0x180C0D13, 0x190903FC, 0x0CF4F6F9, 0x023214EB, 0x040E0FFA, 0xDE08F9EF, 0xF8030C25, 0x201E2524, 0x2A24171B, 0x1219031D, 0x1E32270E, 0xF61EFFFF, 0xFB051406, 0x2423261E, 0x2B1C1225, 0x171C1E20, 0x180C0A26, 0x46400F08, 0x1405F307, 0xF6FF241E, 0x2C1F2724, 0x29270E11, 0x231A261E, 0x2E242B3F, 0x5F602A21, 0x091F0E11, 0x0C132A15, 0x2E311F33, 0x252115F1, 0x001C1229, 0x201D3D39, 0x69734E22, 0x050A1D33, 0x221C0F24, 0x282F2424, 0x192A1FF9, 0x02F81512, 0x20161E3F, 0x757B5B10, 0x0A132731, 0x241D3228, 0x1F202313, 0x163B31FF, 0xED0E1207, 0xF700FA0E, 0x497F610A, 0x0B14202E, 0x29251C1E, 0x03070803, 0x002308F7, 0xF1FD0A10, 0x0BF2CDDE, 0xE731470A, 0x05161633, 0x1F0EF9FA, 0xF4F1F0F2, 0xF50700F4, 0xFBFA0909, 0x08F0E8C8, 0xE5FD1EE2, 0x22FF0FF7, 0xF8E9E9DE, 0xEBF3EFF9, 0xF9090003, 0x00090AFC, 0xF6EAD8EF, 0xECE1DAE4, 0x1A1307EF, 0xF4CECDCD, 0xE9F2F0F1, 0xFE06F6F2, 0xF6F208F5, 0xE4F4E1F9, 0xF9CFCDE3, 0xF60EFD16, 0xFFDDE2D6, 0xDBF0F0EE, 0x17F2E4ED, 0xF6F0FBEA, 0xF0E8F60B, 0x02A2B8E9, 0xF316EA27, 0x1001EFEA, 0xF0EDE9EC, 0xFCE9D8F6, 0x00FFFAFA, 0xFCF60312, 0x15ACEB0C, 0x1B0F0313, 0x17062306, 0xF5000AF8, 0xE2F3EBEA, 0x04F6F001, 0xFD020616, 0xF3B3E2EA, 0xF634071D, 0x14231908, 0x201312ED, 0x09ECF3F6, 0xF0030F04, 0x08000E19, 0x0BDDCFE2, 0x0119FB0C, 0xFA15161D, 0x151EF904, 0xF9FEE9F9, 0xEBFBF807, 0x060C2512, 0xEEF6E1FC, 0xFDF80909, 0x11081E22, 0x12050108, 0xFB06FDF9, 0xF1FEFAF4, 0x0A0F15FD, 0xE9FFEC0B, 0x02F5F011, 0x0D03140B, 0x03070806, 0x16231209, 0x0B06020C, 0x0909010D, 0xFF0609F4, 0x09F91B32, 0x17F3FFF7, 0x08110E22, 0x1A22231E, 0x0F14F6FA, 0xF4FDF9F9, 0x0AF5FE0B, 0x01F50442, 0x2BF5020C, 0x13142426, 0x36273736, 0x231B0D14, 0xF5EEE7F9, 0xF8BBCE09, 0x06F40921, 0x0206172A, 0x25353B47, 0x3E3E3045, 0x3F3C2B36, 0x03001821, 0x1CDDF1FC, 0xF3040EEC, 0xDEE5DBF8, 0x0BFC141D, 0x201D181F, 0x1D201A18, 0x080B1EF5, 0x1F04080A, 0x06FAFFFD, 0xFB120F06, 0x1A233516, 0x0A331614, 0x1229240B, 0xF00AF609, 0xF3F30EFA, 0x0E00F4F3, 0xF6F3FAF6, 0xF4F7F4FC, 0x100B02FE, 0xF30B0104, 0x050B0E04, 0x050F0304, 0xF803FB01, 0x01FE211C, 0x271F2C3D, 0x4841EF11, 0x41292424, 0x342C2C10, 0xFF06F608, 0xF109FC1B, 0x09080B3A, 0x4D495E4D, 0x49131A0A, 0x10221220, 0x2B373525, 0x140FFAFB, 0xF2F1E91A, 0xF0FF0C10, 0x28382D46, 0x313D261D, 0x09161314, 0x09FD0E18, 0x1CF4F709, 0x0C01F005, 0xD2E9F701, 0x10120F0B, 0x0B06F9E9, 0xFD0AF5F8, 0xF7F3FFFD, 0xE9F90B08, 0x050405ED, 0xD4D7F4FD, 0x11040A0E, 0x020D1208, 0x030D0102, 0xEEECECEE, 0xE1DAEA04, 0xFAF52501, 0xF1E6F410, 0x210C1026, 0x25163021, 0x3423170B, 0xF511F0D3, 0xB5B5ACE3, 0x11EF270E, 0xE6F81D0D, 0x1A242728, 0x2E2E2741, 0x3020210A, 0x16FF09E5, 0xD1BCACD8, 0x1D1F2801, 0xECF80C18, 0x1F212B30, 0x30292D26, 0x2011FD00, 0xFBF8F9FC, 0xCE99ADE5, 0xFE291A0F, 0x02150207, 0x0B221D12, 0x0F1D2A14, 0x02060107, 0x0AF6FFFF, 0xDAAAB113, 0x040D1AFF, 0x05051911, 0x15060B16, 0x0A1514E8, 0xE4F40806, 0x1105140E, 0xE59FB3F9, 0x10181EFD, 0xEE040C0C, 0x080902E9, 0xF0F9CBBE, 0xE7010C1D, 0x1B31311F, 0xF5A4A2E3, 0x11281B00, 0xEFF013FD, 0xF7F5E8E1, 0xD6CCC1C1, 0xE8F91608, 0x1A21272D, 0x21D6C1EE, 0xF5FF1603, 0xE5FA0701, 0xF2FDF5E9, 0xC8C9D6E0, 0xEF05F60C, 0xF8131F37, 0x3913F30A, 0xEFF60FEC, 0xE5FE0312, 0x0B021B0B, 0xE6DDDFE6, 0xF9F91615, 0x101A1D35, 0x4A1D1B19, 0xEDF4F2E7, 0xF60F0516, 0x180D1808, 0xF6D8E0D9, 0xF201110E, 0x17260E1E, 0x2A2DF413, 0x09F8ECE4, 0xF00C0828, 0x1B22361E, 0xF6D1D7EC, 0xF609131A, 0x090B1309, 0x153216FB, 0xF2F0E7DD, 0xFB110B10, 0x162B3A34, 0x12E7DAE1, 0xF4110D15, 0x0E0C19FD, 0x20642D27, 0x1801F2C0, 0xF40DF712, 0x1128502F, 0x09EEF1FF, 0x0D18160B, 0x0A041512, 0x223E17E7, 0xE62404BD, 0xF6F5070F, 0x14213132, 0x3C0610FE, 0x0E140D05, 0x050B1407, 0x082801EC, 0x0C0FFAD5, 0xF617F712, 0x1118262D, 0x332A200D, 0x0808FE0E, 0x0D0DFC02, 0x02010DF4, 0xF4F5EFD5, 0xEF0EF709, 0xFF092320, 0x3D232913, 0x0DF9FE04, 0xECE9FF14, 0x101535FD, 0xFD00E7D1, 0xDD01040B, 0x171A0E14, 0x2F21121B, 0x02FDEDF2, 0xF7F5FA04, 0xFC0AE0FF, 0xF408E4C3, 0xCC041111, 0xFC08FA06, 0x0F0F070C, 0xF3F5E8F2, 0xE6F711FE, 0x05F3C9FB, 0xF9F2FBE6, 0xF6F9FDFB, 0x08F902F7, 0x1405100D, 0xF90FF1F5, 0x0903F3F9, 0x230A05FE, 0x0F02E61C, 0x1113EEF0, 0xFDEFEEFC, 0xFA080B11, 0x1B0F0613, 0xEF02EBEC, 0x0B0818F7, 0xF1F80818, 0x05F7151F, 0x21152215, 0x24223022, 0x1C1F2028, 0xFCF305F3, 0x220CF5F8, 0x01F6FC0B, 0x13050E07, 0x25211D16, 0x082A2C16, 0x1736261C, 0x010E0819, 0xF40E0E05, 0x0C0403FC, 0x0EF70CFB, 0xF9FBF7FE, 0xFBF60AFA, 0x06FDF5F5, 0x040AFDF1, 0x060A06F8, 0x0E08F1F9, 0xF9FDDBE2, 0xFCF0ECFC, 0xDE0E1E06, 0x3715E5EE, 0xD5D6E6EE, 0x0C06F200, 0x0CF5F1FE, 0xF607EBDC, 0xFE09F50B, 0x14021407, 0x12200303, 0xFCF5F0E2, 0x060CFAF6, 0x0D05ECE4, 0xE0F6E5F0, 0x0F140C12, 0x07190EF9, 0x0302F306, 0xFB0AFFE3, 0xE610E60D, 0xF7ECF3D0, 0xE6FC030D, 0x1A1B1924, 0x1E17200A, 0x121BF4FB, 0xEFD7DEC2, 0xDCEBF4DD, 0xFCF5F8E4, 0x05FB1E20, 0x213A302D, 0x1D1D2D3A, 0x3926260E, 0x1A120604, 0xE601E3EC, 0x0C16DFDC, 0x03061219, 0x17141123, 0x1D060A01, 0x100CF602, 0x03FC2626, 0x191E0CE3, 0xF1FAF4EA, 0x261F1D30, 0x21271F13, 0x04F8E2E7, 0xE9D8EFF6, 0xFB051429, 0x0B0630FF, 0x25F4F104, 0x17112418, 0x12311112, 0xFCF5E3DB, 0xE4F7070E, 0x02020E0A, 0x020B1FFD, 0xF9D2E1EA, 0x0C160213, 0x081B2105, 0x00EAC6D3, 0xD5F9FB0D, 0x140B0B00, 0xDBD9E7E0, 0xF3CDE4F8, 0xFE0EF710, 0x0A200702, 0x01D4A6AA, 0xCEF4061B, 0xFB04FFE7, 0xD4BCD909, 0xDFC5C3E6, 0xF5FBECFD, 0xFC08FFFC, 0xE0AC8EB7, 0xDEEBF60F, 0xF7FDF7F5, 0xFC0A14F1, 0xE9E0CADF, 0xCCDEE5E2, 0xFEFD0412, 0x12E5BBD9, 0xFDF00E2C, 0x1E19F5E4, 0x424D2DF3, 0x0004D9E1, 0xD3CFEFE3, 0x0312323C, 0x470A000F, 0x11241B18, 0x2A0A0F1E, 0x3364592D, 0x24EFF6E7, 0xF1EAF312, 0x1C203548, 0x4D39150F, 0x1F2D2A2A, 0x1C03FCFA, 0x1A2F541C, 0x06FA0C12, 0xFA00031E, 0x34323135, 0x443B3936, 0x3E2D1917, 0xEE03F700, 0x193D4B1C, 0xF1EB081C, 0xF40E1727, 0x2D36383A, 0x544C3030, 0x341D210C, 0x0C180D1E, 0x1B586029, 0xFFEB0F1E, 0x08FA1D20, 0x2A343643, 0x50442F24, 0x272E0E17, 0x05100B1C, 0x273D2D0D, 0xD7FB02FF, 0x11231B2E, 0x19343844, 0x39322C1E, 0x291C161D, 0x1A1F0E35, 0x3934081A, 0xF1EE0DF9, 0x13160C13, 0x23212318, 0x251E221F, 0x21342411, 0x171D1F2E, 0x21433512, 0xF80B2306, 0x2A08121E, 0x14130122, 0x20FD1428, 0x25312322, 0x27253424, 0x360B28EA, 0xFE071B28, 0x240C0D0F, 0x02160E0E, 0x0B1A1822, 0x11262C3E, 0x283B3742, 0x0A193AFB, 0xE6011322, 0x18010017, 0x141E2226, 0x19332D1C, 0x112F3B4C, 0x3E483C1A, 0xFB0DF0F6, 0xF8F92600, 0xECD7F001, 0x141A2333, 0x2E282E29, 0x2D28253B, 0x30322004, 0xEE08E706, 0x0E0115E8, 0xBFB7B8D0, 0xEF1A0D18, 0x120B231B, 0x05F70FF7, 0xE7EBF9F3, 0x0A2C1301, 0xFCFC09F1, 0xD1B0CAC2, 0xB5B5D3C7, 0xB7C7D1DE, 0xE2D7DED1, 0xDFC1EAE8, 0xDA160B08, 0xF60709F3, 0x01F4C1B7, 0x9C9D9BAD, 0x9C91879C, 0x8C9994AD, 0xC0B7D4EF, 0xF5FF08F8, 0x090F0B04, 0xEAECDBE8, 0xCABAB7D3, 0xD1A5A4B0, 0xB797C8C8, 0xD6D0E3DF, 0xF60406F3
};
const int32_t L1_biases[8] = {
    11233, 10785, -11557, 5636, 8910, -2926, 8249, 284
};
const int32_t L1_bitperweight = 8 + 8;
const uint32_t L1_incoming_weights = 784;
const uint32_t L1_outgoing_weights = 8;
const float L1_input_scale = 0.00392157f;
const int32_t L1_input_zero_point = -128;
const float L1_output_scale = 0.14895947f;
const int32_t L1_output_zero_point = -128;
const float L1_weights_scale = 0.00583100f;
const int32_t L1_weights_zero_point = 0;

// Layer 2 Parameters
const uint32_t L2_weights[20] = {
    0xD312F5D9, 0x89185828, 0xC393633C, 0x4EDC9E11, 0x319A1917, 0xEEC80E5B, 0x6A173B14, 0xDF29BA14, 0x88559914, 0x04A9B151, 0x3B31DB8E, 0x1663CF21, 0xB0221FAE, 0x42883125, 0xEE0AED7F, 0xD2F723E3, 0x89FB32FB, 0x1348DB32, 0xBD37BC41, 0x55DA07F5
};
const int32_t L2_biases[10] = {
    -170, 352, 40, -231, 216, 466, -134, 132, -457, -98
};
const int32_t L2_bitperweight = 8 + 8;
const uint32_t L2_incoming_weights = 8;
const uint32_t L2_outgoing_weights = 10;
const float L2_input_scale = 0.14895947f;
const int32_t L2_input_zero_point = -128;
const float L2_output_scale = 0.22870287f;
const int32_t L2_output_zero_point = -5;
const float L2_weights_scale = 0.00869845f;
const int32_t L2_weights_zero_point = 0;

// Quantized sample input images and their labels
const int8_t input_data_0[784] = {
    -128, -128, -128, -128, -128, -128, -128, -128, -128, -128, -128, -128, -128, -128, -128, -128, -128, -128, -128, -128, -128, -128, -128, -128, -128, -128, -128, -128, -128, -128, -128, -128, -128, -128, -128, -128, -128, -128, -128, -128, -128, -128, -128, -128, -128, -128, -128, -128, -128, -128, -128, -128, -128, -128, -128, -128, -128, -128, -128, -128, -128, -128, -128, -128, -128, -128, -128, -128, -128, -128, -128, -128, -128, -128, -128, -128, -128, -128, -128, -128, -128, -128, -128, -128, -128, -128, -128, -128, -128, -128, -128, -128, -128, -128, -128, -128, -128, -128, -128, -128, -128, -128, -128, -128, -128, -128, -128, -128, -128, -128, -128, -128, -128, -128, -128, -128, -128, -128, -128, -128, -128, -128, -128, -128, -128, -128, -128, -128, -128, -128, -128, -128, -128, -128, -128, -128, -128, -128, -128, -128, -128, -128, -128, -128, -128, -128, -128, -128, -128, -128, -128, -128, -128, -128, -128, -128, -128, -128, -128, -128, -128, -128, -128, -128, -128, -128, -128, -128, -128, -128, -128, -128, -128, -128, -128, -128, -128, -128, -128, -128, -128, -128, -128, -128, -128, -128, -128, -128, -128, -128, -128, -128, -128, -128, -128, -128, -128, -128, -128, -128, -128, -128, -44, 57, 31, 23, -68, -92, -128, -128, -128, -128, -128, -128, -128, -128, -128, -128, -128, -128, -128, -128, -128, -128, -128, -128, -128, -128, -128, -128, 94, 126, 126, 126, 126, 113, 70, 70, 70, 70, 70, 70, 70, 70, 42, -76, -128, -128, -128, -128, -128, -128, -128, -128, -128, -128, -128, -128, -61, -14, -56, -14, 35, 99, 126, 97, 126, 126, 126, 122, 101, 126, 126, 12, -128, -128, -128, -128, -128, -128, -128, -128, -128, -128, -128, -128, -128, -128, -128, -128, -128, -111, -62, -114, -61, -61, -61, -69, -107, 108, 126, -22, -128, -128, -128, -128, -128, -128, -128, -128, -128, -128, -128, -128, -128, -128, -128, -128, -128, -128, -128, -128, -128, -128, -128, -128, -45, 125, 81, -110, -128, -128, -128, -128, -128, -128, -128, -128, -128, -128, -128, -128, -128, -128, -128, -128, -128, -128, -128, -128, -128, -128, -128, -106, 105, 127, -45, -128, -128, -128, -128, -128, -128, -128, -128, -128, -128, -128, -128, -128, -128, -128, -128, -128, -128, -128, -128, -128, -128, -128, -128, 1, 126, 110, -84, -128, -128, -128, -128, -128, -128, -128, -128, -128, -128, -128, -128, -128, -128, -128, -128, -128, -128, -128, -128, -128, -128, -128, -69, 121, 126, -66, -128, -128, -128, -128, -128, -128, -128, -128, -128, -128, -128, -128, -128, -128, -128, -128, -128, -128, -128, -128, -128, -128, -128, -128, 5, 126, 59, -123, -128, -128, -128, -128, -128, -128, -128, -128, -128, -128, -128, -128, -128, -128, -128, -128, -128, -128, -128, -128, -128, -128, -128, -119, 77, 120, -70, -128, -128, -128, -128, -128, -128, -128, -128, -128, -128, -128, -128, -128, -128, -128, -128, -128, -128, -128, -128, -128, -128, -128, -128, -2, 126, 54, -128, -128, -128, -128, -128, -128, -128, -128, -128, -128, -128, -128, -128, -128, -128, -128, -128, -128, -128, -128, -128, -128, -128, -128, -53, 123, 112, -71, -128, -128, -128, -128, -128, -128, -128, -128, -128, -128, -128, -128, -128, -128, -128, -128, -128, -128, -128, -128, -128, -128, -128, -109, 93, 126, 38, -128, -128, -128, -128, -128, -128, -128, -128, -128, -128, -128, -128, -128, -128, -128, -128, -128, -128, -128, -128, -128, -128, -128, -125, 75, 126, 91, -93, -128, -128, -128, -128, -128, -128, -128, -128, -128, -128, -128, -128, -128, -128, -128, -128, -128, -128, -128, -128, -128, -128, -128, -90, 126, 126, -51, -128, -128, -128, -128, -128, -128, -128, -128, -128, -128, -128, -128, -128, -128, -128, -128, -128, -128, -128, -128, -128, -128, -128, -97, 96, 126, -13, -127, -128, -128, -128, -128, -128, -128, -128, -128, -128, -128, -128, -128, -128, -128, -128, -128, -128, -128, -128, -128, -128, -128, -128, 5, 126, 126, -76, -128, -128, -128, -128, -128, -128, -128, -128, -128, -128, -128, -128, -128, -128, -128, -128, -128, -128, -128, -128, -128, -128, -128, -67, 114, 126, 126, -76, -128, -128, -128, -128, -128, -128, -128, -128, -128, -128, -128, -128, -128, -128, -128, -128, -128, -128, -128, -128, -128, -128, -128, -7, 126, 126, 91, -88, -128, -128, -128, -128, -128, -128, -128, -128, -128, -128, -128, -128, -128, -128, -128, -128, -128, -128, -128, -128, -128, -128, -128, -7, 126, 79, -110, -128, -128, -128, -128, -128, -128, -128, -128, -128, -128, -128, -128, -128, -128, -128, -128, -128, -128, -128, -128, -128, -128, -128, -128, -128, -128, -128, -128, -128, -128, -128, -128, -128, -128, -128, -128, -128, -128, -128, -128, -128, -128
};
const uint8_t label_0 = 7;
const int8_t input_data_1[784] = {
    -128, -128, -128, -128, -128, -128, -128, -128, -128, -128, -128, -128, -128, -128, -128, -128, -128, -128, -128, -128, -128, -128, -128, -128, -128, -128, -128, -128, -128, -128, -128, -128, -128, -128, -128, -128, -128, -128, -128, -128, -128, -128, -128, -128, -128, -128, -128, -128, -128, -128, -128, -128, -128, -128, -128, -128, -128, -128, -128, -128, -128, -128, -128, -128, -128, -128, -128, -128, -128, -128, -128, -128, -128, -128, -128, -128, -128, -128, -128, -128, -128, -128, -128, -128, -128, -128, -128, -128, -128, -128, -128, -128, -128, -128, -12, -3, 43, 127, 127, 22, -35, -128, -128, -128, -128, -128, -128, -128, -128, -128, -128, -128, -128, -128, -128, -128, -128, -128, -128, -128, -128, 41, 125, 125, 125, 125, 125, 125, 90, -98, -128, -128, -128, -128, -128, -128, -128, -128, -128, -128, -128, -128, -128, -128, -128, -128, -128, -128, 41, 125, 125, 125, 85, 14, 48, 125, 125, -6, -128, -128, -128, -128, -128, -128, -128, -128, -128, -128, -128, -128, -128, -128, -128, -128, -128, -76, 122, 125, 82, -96, -116, -128, -122, 78, 125, 12, -128, -128, -128, -128, -128, -128, -128, -128, -128, -128, -128, -128, -128, -128, -128, -128, -128, -51, 123, 82, -103, -128, -128, -128, -6, 120, 125, -63, -128, -128, -128, -128, -128, -128, -128, -128, -128, -128, -128, -128, -128, -128, -128, -128, -128, -128, -97, -110, -128, -128, -128, -128, 81, 125, 125, -63, -128, -128, -128, -128, -128, -128, -128, -128, -128, -128, -128, -128, -128, -128, -128, -128, -128, -128, -128, -128, -128, -128, -128, -11, 119, 125, 70, -118, -128, -128, -128, -128, -128, -128, -128, -128, -128, -128, -128, -128, -128, -128, -128, -128, -128, -128, -128, -128, -128, -128, -52, 119, 125, 103, -65, -128, -128, -128, -128, -128, -128, -128, -128, -128, -128, -128, -128, -128, -128, -128, -128, -128, -128, -128, -128, -128, -128, -128, 0, 125, 125, 16, -128, -128, -128, -128, -128, -128, -128, -128, -128, -128, -128, -128, -128, -128, -128, -128, -128, -128, -128, -128, -128, -128, -128, 48, 118, 125, 31, -116, -128, -128, -128, -128, -128, -128, -128, -128, -128, -128, -128, -128, -128, -128, -128, -128, -128, -128, -128, -128, -128, -128, -103, 106, 125, 105, -93, -128, -128, -128, -128, -128, -128, -128, -128, -128, -128, -128, -128, -128, -128, -128, -128, -128, -128, -128, -128, -128, -128, -128, 70, 125, 125, 13, -128, -128, -128, -128, -128, -128, -128, -128, -128, -128, -128, -128, -128, -128, -128, -128, -128, -128, -128, -128, -128, -128, -128, -50, 120, 125, 61, -116, -128, -128, -128, -128, -128, -128, -128, -128, -128, -128, -128, -128, -128, -128, -128, -128, -128, -128, -128, -128, -128, -128, -109, 72, 125, 125, 13, -128, -128, -128, -128, -128, -128, -128, -128, -128, -128, -128, -128, -128, -128, -128, -128, -128, -128, -128, -128, -128, -128, -128, 6, 125, 125, 45, -116, -128, -128, -128, -128, -128, -128, -128, -128, -128, -128, -128, -128, -128, -128, -128, -128, -128, -128, -128, -128, -128, -128, -128, 120, 125, 125, -103, -128, -128, -128, -128, -128, -128, -128, -128, -128, -128, -128, -128, -128, -128, -128, -128, -128, -128, -128, -128, -128, -128, -128, -128, 120, 125, 125, -85, -108, -108, -108, -108, -123, -128, -123, -108, -108, -91, 22, 22, 22, 19, -118, -128, -128, -128, -128, -128, -128, -128, -128, -128, 120, 125, 125, 125, 125, 125, 125, 125, 40, 15, 38, 125, 125, 125, 125, 125, 125, 125, -5, -128, -128, -128, -128, -128, -128, -128, -128, -128, 46, 125, 125, 125, 125, 125, 125, 125, 125, 125, 125, 125, 121, 119, 119, 41, -11, -11, -71, -128, -128, -128, -128, -128, -128, -128, -128, -128, -128, -10, -5, -5, -5, 38, 125, 125, 125, 27, -5, -5, -87, -128, -128, -128, -128, -128, -128, -128, -128, -128, -128, -128, -128, -128, -128, -128, -128, -128, -128, -128, -128, -128, -128, -128, -128, -128, -128, -128, -128, -128, -128, -128, -128, -128, -128, -128, -128, -128, -128, -128, -128, -128, -128, -128, -128, -128, -128, -128, -128, -128, -128, -128, -128, -128, -128, -128, -128, -128, -128, -128, -128, -128, -128, -128, -128, -128, -128, -128, -128, -128, -128, -128, -128, -128, -128, -128, -128, -128, -128, -128, -128, -128, -128, -128, -128, -128, -128, -128, -128, -128, -128, -128, -128, -128, -128, -128, -128, -128, -128, -128, -128, -128, -128, -128, -128, -128, -128, -128, -128, -128, -128, -128, -128, -128, -128, -128, -128, -128, -128, -128, -128, -128, -128, -128, -128, -128, -128, -128, -128, -128, -128, -128, -128, -128, -128, -128, -128, -128, -128, -128, -128, -128, -128, -128, -128, -128, -128, -128
};
const uint8_t label_1 = 2;
const int8_t input_data_2[784] = {
    -128, -128, -128, -128, -128, -128, -128, -128, -128, -128, -128, -128, -128, -128, -128, -128, -128, -128, -128, -128, -128, -128, -128, -128, -128, -128, -128, -128, -128, -128, -128, -128, -128, -128, -128, -128, -128, -128, -128, -128, -128, -128, -128, -128, -128, -128, -128, -128, -128, -128, -128, -128, -128, -128, -128, -128, -128, -128, -128, -128, -128, -128, -128, -128, -128, -128, -128, -128, -128, -128, -128, -128, -128, -128, -128, -128, -128, -128, -128, -128, -128, -128, -128, -128, -128, -128, -128, -128, -128, -128, -128, -128, -128, -128, -128, -128, -128, -128, -128, -128, -128, -128, -128, -128, -128, -128, -128, -128, -128, -128, -128, -128, -128, -128, -128, -128, -128, -128, -128, -128, -128, -128, -128, -128, -128, -128, -128, -128, -90, 126, -19, -128, -128, -128, -128, -128, -128, -128, -128, -128, -128, -128, -128, -128, -128, -128, -128, -128, -128, -128, -128, -128, -128, -128, -128, -128, -41, 124, -46, -128, -128, -128, -128, -128, -128, -128, -128, -128, -128, -128, -128, -128, -128, -128, -128, -128, -128, -128, -128, -128, -128, -128, -128, -128, 7, 113, -128, -128, -128, -128, -128, -128, -128, -128, -128, -128, -128, -128, -128, -128, -128, -128, -128, -128, -128, -128, -128, -128, -128, -128, -128, -83, 116, 22, -128, -128, -128, -128, -128, -128, -128, -128, -128, -128, -128, -128, -128, -128, -128, -128, -128, -128, -128, -128, -128, -128, -128, -128, -128, -44, 126, -65, -128, -128, -128, -128, -128, -128, -128, -128, -128, -128, -128, -128, -128, -128, -128, -128, -128, -128, -128, -128, -128, -128, -128, -128, -128, 74, 95, -117, -128, -128, -128, -128, -128, -128, -128, -128, -128, -128, -128, -128, -128, -128, -128, -128, -128, -128, -128, -128, -128, -128, -128, -128, -96, 126, 88, -128, -128, -128, -128, -128, -128, -128, -128, -128, -128, -128, -128, -128, -128, -128, -128, -128, -128, -128, -128, -128, -128, -128, -128, -128, -33, 126, 67, -128, -128, -128, -128, -128, -128, -128, -128, -128, -128, -128, -128, -128, -128, -128, -128, -128, -128, -128, -128, -128, -128, -128, -128, -128, 12, 126, -51, -128, -128, -128, -128, -128, -128, -128, -128, -128, -128, -128, -128, -128, -128, -128, -128, -128, -128, -128, -128, -128, -128, -128, -128, -71, 109, 77, -120, -128, -128, -128, -128, -128, -128, -128, -128, -128, -128, -128, -128, -128, -128, -128, -128, -128, -128, -128, -128, -128, -128, -128, -128, -4, 127, 37, -128, -128, -128, -128, -128, -128, -128, -128, -128, -128, -128, -128, -128, -128, -128, -128, -128, -128, -128, -128, -128, -128, -128, -128, -128, 43, 126, -47, -128, -128, -128, -128, -128, -128, -128, -128, -128, -128, -128, -128, -128, -128, -128, -128, -128, -128, -128, -128, -128, -128, -128, -128, -104, 104, 87, -128, -128, -128, -128, -128, -128, -128, -128, -128, -128, -128, -128, -128, -128, -128, -128, -128, -128, -128, -128, -128, -128, -128, -128, -128, -8, 126, 31, -128, -128, -128, -128, -128, -128, -128, -128, -128, -128, -128, -128, -128, -128, -128, -128, -128, -128, -128, -128, -128, -128, -128, -128, -128, 23, 126, 14, -128, -128, -128, -128, -128, -128, -128, -128, -128, -128, -128, -128, -128, -128, -128, -128, -128, -128, -128, -128, -128, -128, -128, -128, -128, 100, 126, -62, -128, -128, -128, -128, -128, -128, -128, -128, -128, -128, -128, -128, -128, -128, -128, -128, -128, -128, -128, -128, -128, -128, -128, -128, -67, 123, 126, -62, -128, -128, -128, -128, -128, -128, -128, -128, -128, -128, -128, -128, -128, -128, -128, -128, -128, -128, -128, -128, -128, -128, -128, -128, 13, 126, 77, -125, -128, -128, -128, -128, -128, -128, -128, -128, -128, -128, -128, -128, -128, -128, -128, -128, -128, -128, -128, -128, -128, -128, -128, -118, 87, 126, -7, -128, -128, -128, -128, -128, -128, -128, -128, -128, -128, -128, -128, -128, -128, -128, -128, -128, -128, -128, -128, -128, -128, -128, -128, -123, 70, 48, -118, -128, -128, -128, -128, -128, -128, -128, -128, -128, -128, -128, -128, -128, -128, -128, -128, -128, -128, -128, -128, -128, -128, -128, -128, -128, -128, -128, -128, -128, -128, -128, -128, -128, -128, -128, -128, -128, -128, -128, -128, -128, -128, -128, -128, -128, -128, -128, -128, -128, -128, -128, -128, -128, -128, -128, -128, -128, -128, -128, -128, -128, -128, -128, -128, -128, -128, -128, -128, -128, -128, -128, -128, -128, -128, -128, -128, -128, -128, -128, -128, -128, -128, -128, -128, -128, -128, -128, -128, -128, -128, -128, -128, -128, -128, -128, -128, -128, -128, -128, -128, -128, -128, -128, -128, -128, -128, -128, -128, -128, -128, -128, -128, -128, -128, -128, -128, -128, -128, -128, -128, -128, -128, -128, -128, -128, -128
};
const uint8_t label_2 = 1;
const int8_t input_data_3[784] = {
    -128, -128, -128, -128, -128, -128, -128, -128, -128, -128, -128, -128, -128, -128, -128, -128, -128, -128, -128, -128, -128, -128, -128, -128, -128, -128, -128, -128, -128, -128, -128, -128, -128, -128, -128, -128, -128, -128, -128, -128, -128, -128, -128, -128, -128, -128, -128, -128, -128, -128, -128, -128, -128, -128, -128, -128, -128, -128, -128, -128, -128, -128, -128, -128, -128, -128, -128, -128, -128, -128, -128, -128, -128, -128, -128, -128, -128, -128, -128, -128, -128, -128, -128, -128, -128, -128, -128, -128, -128, -128, -128, -128, -128, -128, -128, -128, -128, -128, -128, -128, -128, -128, -128, -128, -128, -128, -128, -128, -128, -128, -128, -128, -128, -128, -128, -128, -128, -128, -128, -128, -128, -128, -128, -128, -117, 22, 125, 74, -97, -128, -128, -128, -128, -128, -128, -128, -128, -128, -128, -128, -128, -128, -128, -128, -128, -128, -128, -128, -128, -128, -128, -128, -91, 123, 123, 125, -21, -128, -128, -128, -128, -128, -128, -128, -128, -128, -128, -128, -128, -128, -128, -128, -128, -128, -128, -128, -128, -128, -128, -107, 69, 123, 123, 125, -21, -128, -128, -128, -128, -128, -128, -128, -128, -128, -128, -128, -128, -128, -128, -128, -128, -128, -128, -128, -128, -128, -18, 62, 123, 123, 123, 125, 41, -19, -66, -128, -128, -128, -128, -128, -128, -128, -128, -128, -128, -128, -128, -128, -128, -128, -128, -128, -128, -128, 125, 123, 123, 123, 123, 125, 123, 123, 92, -77, -128, -128, -128, -128, -128, -128, -128, -128, -128, -128, -128, -128, -128, -128, -128, -128, -128, 54, 127, 125, 125, 125, 125, 106, 94, 125, 125, 125, -128, -128, -128, -128, -128, -128, -128, -128, -128, -128, -128, -128, -128, -128, -128, -128, -65, 93, 125, 123, 123, 123, 19, -51, -66, 0, 123, 123, -23, -128, -128, -128, -128, -128, -128, -128, -128, -128, -128, -128, -128, -128, -128, -96, 103, 123, 125, 123, 92, 9, -118, -128, -128, -97, 102, 123, 115, -15, -123, -128, -128, -128, -128, -128, -128, -128, -128, -128, -128, -128, -128, -91, 123, 123, 125, 60, -108, -128, -128, -128, -128, -128, -19, 123, 125, 123, -93, -128, -128, -128, -128, -128, -128, -128, -128, -128, -128, -128, -128, -91, 123, 123, 73, -98, -128, -128, -128, -128, -128, -128, -97, 72, 125, 123, -93, -128, -128, -128, -128, -128, -128, -128, -128, -128, -128, -128, -128, -91, 125, 125, -128, -128, -128, -128, -128, -128, -128, -128, -96, 74, 127, 125, 36, -128, -128, -128, -128, -128, -128, -128, -128, -128, -128, -128, -128, 12, 123, 123, -128, -128, -128, -128, -128, -128, -128, -128, -19, 123, 125, 123, -93, -128, -128, -128, -128, -128, -128, -128, -128, -128, -128, -128, -128, 89, 123, 123, -128, -128, -128, -128, -128, -128, -107, -65, 103, 123, 125, 102, -98, -128, -128, -128, -128, -128, -128, -128, -128, -128, -128, -128, -128, 89, 123, 123, -128, -128, -128, -128, -128, -128, 16, 123, 123, 123, 93, -67, -128, -128, -128, -128, -128, -128, -128, -128, -128, -128, -128, -128, -128, 89, 123, 123, -128, -128, -128, -128, -128, 54, 93, 123, 123, 123, 52, -128, -128, -128, -128, -128, -128, -128, -128, -128, -128, -128, -128, -128, -128, 90, 125, 125, -55, -55, 100, 125, 125, 127, 125, 125, 125, 125, -128, -128, -128, -128, -128, -128, -128, -128, -128, -128, -128, -128, -128, -128, -128, -15, 123, 123, 125, 123, 123, 123, 123, 125, 123, 123, 123, 19, -128, -128, -128, -128, -128, -128, -128, -128, -128, -128, -128, -128, -128, -128, -128, -97, 102, 123, 125, 123, 123, 123, 123, 125, 102, 61, -93, -118, -128, -128, -128, -128, -128, -128, -128, -128, -128, -128, -128, -128, -128, -128, -128, -128, -66, 14, 125, 123, 123, 123, 123, 125, -21, -128, -128, -128, -128, -128, -128, -128, -128, -128, -128, -128, -128, -128, -128, -128, -128, -128, -128, -128, -128, -128, -56, 46, 123, 45, -57, -56, -98, -128, -128, -128, -128, -128, -128, -128, -128, -128, -128, -128, -128, -128, -128, -128, -128, -128, -128, -128, -128, -128, -128, -128, -128, -128, -128, -128, -128, -128, -128, -128, -128, -128, -128, -128, -128, -128, -128, -128, -128, -128, -128, -128, -128, -128, -128, -128, -128, -128, -128, -128, -128, -128, -128, -128, -128, -128, -128, -128, -128, -128, -128, -128, -128, -128, -128, -128, -128, -128, -128, -128, -128, -128, -128, -128, -128, -128, -128, -128, -128, -128, -128, -128, -128, -128, -128, -128, -128, -128, -128, -128, -128, -128, -128, -128, -128, -128, -128, -128, -128, -128, -128, -128, -128, -128, -128, -128, -128, -128, -128, -128, -128, -128, -128, -128, -128, -128, -128, -128, -128, -128, -128, -128
};
const uint8_t label_3 = 0;
