/*
 * This file is auto-generated by generate_c_model_params.py.
 * Do not modify manually.
 */
#include "mnist_model_params.h"

// Layer 1 Parameters
const uint32_t L1_weights[1568] = {
    0x000B03FD, 0x07F700F6, 0x080AFAF4, 0x0FF60E06, 0xF2F30E01, 0xF207F3FB, 0x070DFC02, 0xF7F5FEF9, 0xFE0BF508, 0x01FFF613, 0x0507F9F2, 0x090CFCE4, 0x00FDF20C, 0x02020E0B, 0xF30DF90A, 0x02FDF0EC, 0xFD15FC0F, 0x11FFF7EB, 0xF00305F4, 0xF8F2FEFB, 0x1710FFFF, 0xF200FB0E, 0xEFDFDCE0, 0x1F281623, 0x2F282612, 0x0E0D04ED, 0xF0E7EAF7, 0x0A120B0A, 0xFAF3E3FE, 0xDCD90501, 0x0918122A, 0x2415151D, 0x0A0608EE, 0xF0F6D3E4, 0xFC1F1DE1, 0xFF06F818, 0xEEF8F10E, 0x1B141518, 0x231C1113, 0x1C1210FC, 0xFBFAE8DE, 0xF52C0FD4, 0x05F30B14, 0x07192715, 0x2E222224, 0x1E1C282E, 0x272C221A, 0x1315FBDE, 0xF11504FE, 0x071D2837, 0x12152725, 0x24323A2F, 0x31342623, 0x34273422, 0x1E1910F8, 0x0B1EF6FB, 0x25131519, 0x23242531, 0x2D24392E, 0x2F283330, 0x3F2B3135, 0x2D221F3A, 0x1D1B1CEF, 0x191C1F25, 0x2D371118, 0x23162421, 0x2C2D412A, 0x3D2F3321, 0x1C182839, 0x4546261C, 0x0F0F252D, 0x1D1F1703, 0x090F051A, 0x05232B0A, 0x1F342A22, 0x19141B0E, 0x2E1F2AFD, 0x0F25151A, 0xF8FCEFE5, 0xDCEAE4F0, 0xEBF0E7DD, 0xE0FCFAF6, 0x0100F4F1, 0xE7FC20DD, 0x0C1312EB, 0xEFCFC8D4, 0xECDDDAD1, 0xC9C3C4C7, 0xD3E0F7EE, 0xF7E2D7C5, 0xF4FEE901, 0xF9FC1AED, 0xD9CBD3E4, 0xD9E0EED9, 0xCECFD3CC, 0xD8E9F5F6, 0xF8EADCE7, 0xEE0A1B0B, 0x1FEC25F2, 0xCFDFF1ED, 0xF7F7FBDE, 0xDAEEDFD5, 0xE3F11401, 0x08FEEFFB, 0x0E1B3F1F, 0x25ECF101, 0xFFF7E1F3, 0xE709F6DA, 0xDEDFCAE3, 0xD00C1A05, 0xFE0F06FB, 0x211B2C2E, 0x15EDF91B, 0x241409ED, 0xFCF5FBE9, 0xF0E1CDE6, 0xFA0F0809, 0x0A15F905, 0x1D252427, 0x06F20114, 0x232C1DE3, 0xDCE8EFEC, 0xECCCD6EE, 0x09080006, 0xFC080A06, 0x183A3822, 0x10EBFAFD, 0x261D1500, 0xF2E5DDE1, 0xECE9EB00, 0x080F1805, 0x0D01140F, 0x2A371123, 0xF317F6EA, 0x1D261B24, 0x160306FA, 0x0B1B0605, 0x080CFC00, 0x120C1805, 0x192D1D14, 0xF2121402, 0x3A402F27, 0x1E0F1B17, 0x130E090C, 0xF705F5F9, 0xFA041D24, 0x1C161011, 0x000B0107, 0x1F1C1F26, 0x221F0C0D, 0x0A1B0903, 0x0BF60205, 0x03020F25, 0x24141404, 0xF4EBF60F, 0x0F08242A, 0x2323151F, 0x17101118, 0x0E04FFF9, 0xF6FD0D23, 0x06FEDC05, 0x0B05E1F1, 0x11191D33, 0x191B212A, 0x21221E1C, 0x0A09FB09, 0xEEED1906, 0xFD04E20C, 0x0DFEEE0E, 0x341E0801, 0x0E100A1A, 0x3143261E, 0x1F1B0E02, 0xF400F2FC, 0x311A0B01, 0xFD0BF02D, 0x250B0F14, 0x0820162D, 0x2725232A, 0x24301D0E, 0xFCF6F5F9, 0x14070CF6, 0xFEF70BE8, 0xE3F8F917, 0x29272223, 0x1E302C2E, 0x2C2D2C38, 0x06162816, 0x00FAF4FB, 0xF9FCF50A, 0x08080C19, 0x291F3212, 0x1C291E10, 0x1C322532, 0x15010326, 0xFBF6F601, 0xF50AFFF6, 0x040FF7FB, 0xF4F80009, 0xEBF403F9, 0xF503F4FE, 0x06F50506, 0xFB0EFF0B, 0x0CF30CF8, 0xEE00E5D8, 0xF2F4F2D2, 0xCBD5EAEB, 0x17F0BFC6, 0xD1DDDEE3, 0x0B020100, 0x010DF1EA, 0xDF0406EB, 0x01242420, 0x0F0DFFFE, 0xFA03ECED, 0xF8F5E1FA, 0x1A1EFD0E, 0x0BF8E8E4, 0x02111E28, 0x2C323345, 0x2C201B17, 0x1219201A, 0x201912FF, 0x07171AF5, 0xF908F9F9, 0x07293037, 0x352A282B, 0x23110E15, 0x10211B06, 0x0FF1E0E2, 0x0B17011D, 0xF6080B09, 0x340F0D23, 0x2C1E2C1D, 0x32221913, 0x1C0A15FE, 0x00ECE6D5, 0xEF242323, 0x0B0104FB, 0x310C0B0C, 0x0F181805, 0x08111924, 0x23220E04, 0x0BEDD6E0, 0xDF1F2819, 0xF3010BF3, 0x180F0DF3, 0x0F09FD0B, 0xFA0A302E, 0x150E05FA, 0xF2EDDFD9, 0xF9282411, 0xE1D8DFEF, 0x1B030B01, 0x000EFC05, 0xEF031108, 0x0AF3F5FB, 0xF30EFCD9, 0xE929210E, 0xEBD9DFE4, 0x0419FD04, 0xFC0311F9, 0xF7FEF6F6, 0xF8F5F0EF, 0x0AE9F9EA, 0xC6FFFADC, 0xF8E0CFF2, 0xE5FB09FC, 0x0401F9FB, 0xF1E0CCCC, 0xF4F400F3, 0xEDF6F5DC, 0xD41114D9, 0xFCCABBDA, 0xD802FBE5, 0xEEF8F0F6, 0xE6C7C9D7, 0x07160A05, 0x09F2F7DE, 0xD20C13DD, 0xEEDDBFB4, 0xE0E2DBCF, 0xE706FA15, 0xFA01E005, 0x180D0E1D, 0x0500EDDA, 0xEA052301, 0x03E5CDD4, 0xE7EAD8DF, 0x0C002418, 0x302E1028, 0x2A301F2B, 0xFBFEE4D4, 0xF030452C, 0xF2FCC0E7, 0xF6ED0214, 0x121B1B34, 0x23212228, 0x451F260B, 0x03F1E9CA, 0xDF183E19, 0xD7F2CD02, 0x041F171D, 0x271D2825, 0x34260B38, 0x33210E10, 0xF6E9ECDC, 0xEE365628, 0xE3FDFF24, 0x11151717, 0x0A0D1632, 0x351C1027, 0x272D1608, 0xF30EF9F4, 0x1055591D, 0x0EF21823, 0x1D11210D, 0x0E05172C, 0x2B0A011A, 0x29241C11, 0x0F20100B, 0x14374205, 0xE2FF0311, 0x2B281C12, 0x04EE020D, 0x0F061225, 0x30231D26, 0x20221324, 0x2532FF07, 0xFAD1EE19, 0x1D35160E, 0x05FDF9F5, 0xFEF70709, 0x152C1C15, 0x1C151404, 0x09251D0F, 0xF8F20318, 0x2D271F1B, 0x0EF5E8EF, 0xEC080E12, 0x1B051E24, 0x26151821, 0x0C300AFD, 0xFE032E14, 0x1D07F6F6, 0x09FF0209, 0x04150505, 0x1B1A2728, 0x12131826, 0x1514FA06, 0xF4033B2D, 0x0DD9E9F5, 0xFB07141E, 0x1A170405, 0x010C130D, 0x17152F22, 0x23FDE302, 0xF30B182A, 0x1DE9F1F4, 0x06FD040E, 0xFE0F05EE, 0x03EF2D31, 0x2734323C, 0x3C12D0F3, 0x02F704FF, 0x0AEFF513, 0x1D09060F, 0xFE041202, 0x18201B12, 0x3C402E50, 0x48370209, 0x00011CD9, 0xDE091D1C, 0x0F0C0F02, 0x030B0E0F, 0x1A191D0F, 0x2611030E, 0xF927070D, 0x0B01FF1E, 0x3834361F, 0x0311FAF7, 0x0EFF17EE, 0xF7E0E6EB, 0x1407EA05, 0x14FAF60A, 0x0AFF08F4, 0xF4FCF5EC, 0xF1F1DEDF, 0xF4BDE7E6, 0xCEC4E5D8, 0x01FFE2E1, 0xFEFFFF00, 0xF7FF0206, 0x0AF200FE, 0x0DF4FFF4, 0x100FFF02, 0x0B07FE0B, 0xF6FD0005, 0x08F7F60D, 0xFE080FF8, 0xF6FB1F23, 0x18263242, 0x462F0924, 0x0927393B, 0x272B2816, 0xFF01FDF3, 0x0E09F80B, 0x1E032532, 0x160A4430, 0x37272022, 0x1204031F, 0x0407281A, 0x1C18F30C, 0xFB041126, 0x040E1F2C, 0x29221B32, 0x1F272F1A, 0x1822F60B, 0xF1EFF3F2, 0xF9FA0FFD, 0xF2F80E22, 0x3C401519, 0x21061E0A, 0x0B200D15, 0x1D1F151B, 0x190F00F7, 0xCCE1E10C, 0xF3080806, 0x33162906, 0x060619FF, 0xFA061326, 0x1416311B, 0x120B1C10, 0xDFB5E40F, 0x0303063F, 0x3116222A, 0x1115020A, 0xF4ECF9E9, 0x00021008, 0x08191FED, 0xBCA1CFFB, 0x0B1CFC38, 0x43423117, 0x060F0209, 0xE9EEFFE6, 0xF0FF0301, 0x110BFCFF, 0xCC94DC08, 0x150D3033, 0x3F1A181A, 0x060FFFEE, 0xFBEEF6FC, 0xFE08F907, 0xECF201E3, 0xAB96A8DA, 0x05202C25, 0x29070405, 0xF7F1E3E6, 0xDEFD0B0D, 0x18FF0AFB, 0xF9E6EBE3, 0xC7819ED0, 0x1E243B37, 0x06FDDDDF, 0xE8DFE1D6, 0xF0EEF707, 0x132810FB, 0x08F402F1, 0xD296A3E9, 0x06234140, 0xF1CCD3D6, 0xE5F2E1ED, 0xFCEFE1F0, 0x0AFCF803, 0xF7061219, 0x06B8B1FC, 0x0A1B310D, 0xCED0E7E5, 0xF0090518, 0x1F01E2EE, 0xF501F4DC, 0xD7F2173A, 0x3BF6B0EB, 0x091D2600, 0xDFE7FDF8, 0x00061A30, 0x1506F3E1, 0xE7FCF1E6, 0xDB0B1937, 0x5B02B5DB, 0xEE1621F3, 0xDD0B0E12, 0x161B2920, 0x20EFF2E8, 0xF3F7F8F5, 0xF81C3148, 0x5109C3E7, 0xEC193CFA, 0xF6210A27, 0x07151C25, 0x0BF40DFF, 0xFEFA0F17, 0x161D2F28, 0x3103D1E6, 0x180F43F6, 0xFE170D1F, 0x091B1817, 0xE8EF06EF, 0xFE05102D, 0x1C1A2B13, 0x2D06CBE8, 0xFB163002, 0x0A09FA04, 0x11FF08F4, 0xD6E0FEFD, 0x0502180E, 0x23142516, 0x0200E004, 0xF61E2919, 0xF4FDEE02, 0x13FD01EE, 0xEBF2EFFB, 0x111E121C, 0x05240605, 0xF5FFFAF5, 0x0524F116, 0x02F9F60C, 0x0B071A1E, 0x0D00181D, 0x2030170E, 0x110E05EB, 0xEAF8FE07, 0xFE12ED0D, 0xF0F70BFD, 0x0A172729, 0x1E202C31, 0x322D1F18, 0x140CF1E5, 0xEBF11213, 0x02FD0513, 0xF608F709, 0x0A14262A, 0x1B2E1B30, 0x2322260A, 0x0B0AE4F3, 0xE5FA1B0B, 0x070320FE, 0xE807020C, 0x0B100C0E, 0x19121829, 0x11222125, 0x140AF6D6, 0xE8F50007, 0x05021C05, 0xFD08121C, 0x07120909, 0x070F050E, 0x18121D09, 0xF8F9EBE2, 0xDEFF1F09, 0xF20BFA2C, 0x140AFC00, 0xE6F9F3F1, 0x0300FEFE, 0xEDF3F6E1, 0xE2E5E2D6, 0xF1130604, 0x0900FD0C, 0x0DEEDFE9, 0xDADBD8E4, 0xDFE5D8DE, 0xCACEC3CB, 0xB6D6EDFB, 0xD1EDF40E, 0x0A0500F2, 0xECD3E6FA, 0xE6D5DFE5, 0xE5D8CACD, 0xD8BBCEE2, 0xDFC7E0E7, 0xE204FBF3, 0xF903F901, 0x08FCEFF5, 0x00F2ECFB, 0xD7FBE7ED, 0x04FFD8DD, 0x00F8F602, 0xF1FE0201, 0xF404F206, 0x09F906F9, 0x0E0705FC, 0xE7E8FE00, 0xF2FC05F6, 0x0200F509, 0x0C0EFB08, 0xF5F505F4, 0xF8EE0CED, 0xEED9DAD3, 0xD6DF0A1D, 0x0BEEC4E7, 0xE0F4160C, 0xF10103FA, 0x0EF4FFFC, 0xF0E5DBE8, 0xF707DF02, 0x1331283E, 0x3311EBDD, 0xD4DBEDF9, 0x0423F707, 0x08020A23, 0xE420F9EB, 0xEE0F070A, 0x111D1624, 0x16FDF2D7, 0xE4BFCDD8, 0xF209DFFD, 0x06FC1621, 0x16182510, 0x24162525, 0x3C304036, 0x2C0F1A0C, 0x1001E8E3, 0xDBE903E7, 0xF50C071C, 0x43331C03, 0x01FD0000, 0x221B1630, 0x170B1001, 0x1A10F9E8, 0xE0D6F7E8, 0x0111EC30, 0x471E130E, 0x0D1A1512, 0x14141113, 0x060609FD, 0x0A03F5E6, 0xDBDA04E7, 0xFC151836, 0x61232826, 0x200E090D, 0x0907FEFC, 0xF1F0070A, 0x060905EA, 0xD4C40DEE, 0xEC181046, 0x5F362826, 0x1B1112F9, 0x13081812, 0x0A0C140A, 0x0E0B08E0, 0xBFC61019, 0x1BF60B2E, 0x4E273131, 0x0B10F8FF, 0xFB091728, 0x1A0BEF05, 0xEAF210EF, 0xB8D415E7, 0x1B061C1B, 0x2821240E, 0xF4EAE9EB, 0xEB092335, 0x0F09EA05, 0xE90909FC, 0xD0CFE816, 0x0110112F, 0x1800FAF1, 0xF0DDD7CF, 0xDF153A25, 0x1D0101F8, 0x07F4161D, 0x280E1417, 0x090DEE00, 0xF8E6B3CA, 0xD5DDC0C5, 0xD6042C32, 0x1807040F, 0x180A0412, 0x1D262915, 0x090C0A0E, 0xB1A2A5B9, 0xCED8C8BF, 0xD7253638, 0x230709F4, 0xFAF3F4E7, 0xF8182F1B, 0xE5DF17FB, 0xBB9BA6B4, 0xCED1D0D0, 0xF42A4836, 0x1BF8F8EE, 0xE8E2F0D9, 0xE0F82F12, 0xEDF01B0F, 0xD6C0D1D0, 0xE0E9D2DE, 0x1C54543E, 0x07E6ECEC, 0xD6E7F0EE, 0xFF022B22, 0x01021E30, 0xEFEBDADD, 0xDFF5F00D, 0x3546422F, 0xEEF1E4E4, 0xE1F1EB0F, 0x112E4728, 0xFBF7164B, 0x1BFAD9E8, 0x00100F20, 0x3B403107, 0xE3E8F004, 0xED020613, 0x1921452C, 0x121B0D35, 0x0FF3EEE7, 0x0906F919, 0x212415F5, 0xFDF70402, 0xFAFE1304, 0x163A2631, 0xFAEEFE02, 0xFCE9E7F7, 0x161907F7, 0x0221FC0A, 0x16190B0D, 0x010F0C12, 0x003C2A17, 0x07F2F417, 0x03FE1B2D, 0x11150E1A, 0x11111109, 0x15141815, 0x1E1B031D, 0x0B2A20FF, 0x0E0B1B17, 0x08142F23, 0x161C2102, 0xFF131917, 0x131D2A23, 0x201207F8, 0x072CE3EE, 0xFE111019, 0x26363F3B, 0x18091410, 0x00F9060D, 0x0C0D2716, 0x09F6F8F5, 0x0503E501, 0xF70808E8, 0x18172C0E, 0x1C0401F7, 0x0A150A18, 0x1F1B1B19, 0x05F6E704, 0x0910180E, 0x010C19D1, 0xD8DDEEEE, 0xF102010E, 0x080812F7, 0x02FC020E, 0xE4EFD9DB, 0x133A2AFD, 0x040B05CB, 0xBF9CB8D0, 0xDDE0E6F2, 0xFAF7FEF3, 0xE1E0DEE6, 0xD1C3C7CF, 0xE0081A0C, 0xF4FC0DE0, 0xBEB3C1D5, 0xDFDFC6C9, 0xBDB398BA, 0xA9C2EBEC, 0xDDE7EDF6, 0xF6130601, 0x030BF301, 0x06FA1E25, 0x2907E60C, 0xE010EAE7, 0x0116F523, 0xDCE7DF0A, 0x02FBFDFB, 0xFC090B01, 0x03F9FDF2, 0x030D0B08, 0x110FFCF2, 0xF4F5F7F2, 0xFEF80005, 0xFA0BF908, 0x06F8F90D, 0x050D1517, 0x2416130D, 0x1C24110F, 0xEE0D2C2A, 0x381D2212, 0x040608FE, 0x00F7F9E9, 0x0E041C2C, 0x3A1B3834, 0x2423242C, 0x15181E16, 0x242A1E25, 0x0B030A0C, 0xFEFA0A00, 0x110F3825, 0x1D1C1614, 0x08180506, 0x140D1412, 0x161A1F11, 0x1A09080C, 0x0101FAFB, 0x14030D08, 0xF1EBE0D5, 0xD6E2E3E2, 0xEA01FB0A, 0x0E13151F, 0xFFEAE6E6, 0x05FC06EE, 0xF1F8EEF4, 0x01FFFCDF, 0xF1E5E0EC, 0xDEE8FA01, 0x07F91324, 0x2406F306, 0xF3F00FE3, 0xF9FA0708, 0x0BFFFF02, 0xFCFC00F8, 0xEAFAF2F4, 0xF7F3F915, 0x170F081F, 0x0B092005, 0xEEFF0117, 0x110A1713, 0xF5ECFDF8, 0xF3FCE6F1, 0x06031200, 0x2B1D110E, 0xDF1A270D, 0xF4EE0011, 0x180AFB06, 0x03EDFE03, 0xE4F7EFDF, 0xEB01EF03, 0x0A1DEBE4, 0x19240801, 0xECF5F200, 0x0DF30306, 0x0EF213FD, 0xF3E4EAD8, 0xE5EADADB, 0xDD07E706, 0x091410FE, 0xF2081707, 0x1A020713, 0x150C1C13, 0x14FADDD7, 0xE1DAD7CC, 0xC1DBE401, 0x060B340C, 0x1322091A, 0x2A152A21, 0x23231118, 0x2D14FEE5, 0xF1EDF4CB, 0xC6BDCCF7, 0xFD153925, 0x2A121B24, 0x2329151A, 0x12FBF417, 0x242718F0, 0xFDFAFEFD, 0xDDD1BA0B, 0x0106311B, 0x261F301A, 0x1C111FFF, 0xE7E6FF32, 0x392D150C, 0x0A1D0617, 0x01E0AED8, 0x0404262D, 0x261C1112, 0x1B120900, 0xDFE50C25, 0x2A14161C, 0x241F2127, 0xFAF0B4F4, 0x230E1414, 0xE0F21302, 0x02FF0605, 0xE4F51A20, 0x252A1B14, 0x24281806, 0xF4F4AEEA, 0x1EF9FAF5, 0xE4F4F513, 0xFC0EF8FC, 0xF2F91B2C, 0x0F0E0F11, 0x1C09FDED, 0xE3E9C3E4, 0x0003FFE2, 0xD8F1F2F6, 0x0304FEF5, 0xEC23312D, 0x16171F0E, 0x0003E7D9, 0xFC13D4E1, 0x130317E2, 0xF3DDD3E6, 0xDEECDEEF, 0x04193110, 0x0B041008, 0xFEFFE5E3, 0xFC1D150B, 0x110E16F0, 0xE7D7E0DD, 0xDCD7D501, 0x0C1E2211, 0x18FC0CFC, 0xF5DDCAD3, 0xFCF6E905, 0x0DF3F5E2, 0xF0DACEDC, 0xCDDDF210, 0x24122009, 0x0D03F1FE, 0xEFDECFE4, 0x03E01303, 0x19F9D6CD, 0xF5EDCDE3, 0xFDF5F810, 0x19172316, 0x0A12F7EA, 0xE2D3E2E0, 0x12EBF4F7, 0x1AF9CED0, 0xE7ECD9F6, 0xF5090AFA, 0x06FF0008, 0x0AFAF9ED, 0xE4E6D5CA, 0x02F6F5F9, 0xFAF9D1CE, 0xDAF8EB04, 0xF7FFFBE5, 0xF0E0FBFC, 0xFCFAF7EA, 0xECF5EAF5, 0xF9040C04, 0x03FBF5F2, 0xFA211B16, 0xFEFFF7FE, 0xEBEFF8F3, 0xEBF9EBFA, 0x121E04EA, 0xF6122DFD, 0x0708DA23, 0x1B0AFD03, 0x140A0209, 0x07040F05, 0x05100108, 0x00211E04, 0xE71024F9, 0xFF03070F, 0xEEFB1111, 0x1A121A14, 0x0F1F2321, 0x29251C27, 0x171E2C0D, 0xEDFD0B08, 0xF4040EFB, 0xFB150511, 0x1117270B, 0x163A2B15, 0x1E242A1C, 0x191D2122, 0xFEF20907, 0x020004FE, 0x050EF3F7, 0xF305FEF2, 0xF7EC08F7, 0x0DF2FDF4, 0x090CFB04, 0x04F60DF3, 0xF9060E0C, 0x0AEFDCEB, 0xD8E5D1D4, 0xC3D8EFC2, 0xCAB9D6E4, 0xE1DED5F5, 0x02F7F507, 0xF5F800EC, 0xFAEFDFC9, 0xC7C0A9AC, 0xA2CCD2B8, 0xBBB3A7C9, 0xD6CFD4C3, 0xE6E0FBF5, 0xFD01FFE2, 0x09CCBBBD, 0xADB6ADA6, 0xB6B0B4AD, 0xB2CCCAC4, 0xDFFC0F15, 0xFBE7E5FD, 0x08F7F9CF, 0xDBD6DAD9, 0xE1DADBE7, 0xEFF4FDF4, 0x06F4F3FE, 0x0E1E1A34, 0x3C150BDD, 0xFDF4E5DF, 0xECEDFBEB, 0xF1FCF6FC, 0x02FF131C, 0x201B120A, 0x0A010D21, 0x2439F5E5, 0x08F2FACD, 0xF107FC09, 0x0FF7FEF3, 0xFCF3E8FD, 0xF100FA19, 0x16161425, 0x30322B00, 0x03D5F1E1, 0xF205FF07, 0x120D11FE, 0xF5E8E2EB, 0xFC0A0818, 0x0F191A34, 0x44302606, 0x08CAF7F0, 0xE8151210, 0x13121908, 0x08EFECEA, 0xFC051720, 0x121C091D, 0x49432325, 0xE7DEE8D6, 0xD906090D, 0x1A220D0C, 0x1AF6C9D4, 0x01171108, 0x0A0E111A, 0x240915EF, 0xF7D5D9C3, 0x12FB081B, 0x2135302A, 0x300ED8DA, 0xEFFC0509, 0x04041117, 0x02F3FFF4, 0xF5ECC6D1, 0xFA0C1918, 0x2029232F, 0x240DDEE7, 0x100D04F6, 0xF202F806, 0x160027FE, 0x0CF0E6EE, 0xFD0B1026, 0x1C272A21, 0x2300E8FE, 0x06030913, 0x111BFD01, 0x0801FDD7, 0x04F8D9E8, 0xF9FF1A15, 0x121A1E2C, 0x2806E209, 0x060F130A, 0x1E0710F3, 0xD4E0E4EC, 0x18ECED09, 0x10070816, 0x1A112535, 0x22FDF001, 0x0F1A0E11, 0x06FC01F5, 0xE4E9BEF1, 0x12DD0EF9, 0xFEF3E9FF, 0x12252829, 0x1E08F616, 0x21191109, 0xEAEA00F4, 0xEBDAEEDA, 0xEBE8E2E1, 0xD3E3F40C, 0x100B1B19, 0x0F040610, 0x1B1108EF, 0x00F1F00B, 0xF3D7D3E6, 0x03E3FFDE, 0xE404FA0A, 0x0E151026, 0x0C001017, 0x270AEEEA, 0x04FEFB02, 0x0AAED8D3, 0xE5F2EBCB, 0xF0F8FD10, 0x10161104, 0x0F0916FC, 0x00EFEFF1, 0x07E8E400, 0xFEB6D7E7, 0x06FA00CA, 0xE1F0F8F7, 0x0C120BFF, 0x00F9F509, 0xECF1FFFA, 0xEDF5FCF3, 0xE6B4CDE6, 0x061400CC, 0xD9F1E400, 0xFEF004FD, 0x06F9FF0F, 0x0A03FEF6, 0x00FC0204, 0xE2CAE4E7, 0xF5E5E0BB, 0xC8F2E3F1, 0xF107FF16, 0x0F110B0E, 0x0A01FCF6, 0x050F08FD, 0xD9CEEB0B, 0xFCF6DCCB, 0xD6D7F1FB, 0xFEFA0725, 0x21272521, 0xFF0F0D0C, 0xF317060B, 0xFEF30E01, 0x0C0BD5CD, 0xDEDFDDEF, 0x0A09030D, 0x2A242817, 0x2111080F, 0x1B0FFF00, 0xF1FA0600, 0x0E00D5D2, 0xB2C4DEDE, 0xEE00FB02, 0x0309010A, 0x10FE0F1C, 0x0F06F9FB, 0xE7DFEE03, 0x05FEFC1F, 0xF6D2C8CD, 0xB9C0E7D2, 0xD2E4ECFE, 0xEAFAE9E1, 0xD5CDEF00, 0xE1F7F408, 0x02FD0907, 0xF6F9E5BC, 0xC1BFBAC2, 0xC4B8A3A4, 0xA5A4B99F, 0xB6BCC1E0, 0xE105FB02, 0x0A01FCFE, 0xF8FEF0F4, 0xE9D5D0E2, 0xDFBFA7D2, 0xCBB7CBC6, 0xE2E0E2E8, 0x070A030D, 0x0706F803, 0xF7FC0504, 0xFD0DF4F3, 0x1110F604, 0xF4F307F6, 0xFBF3FD00, 0x060EF8FF, 0x0EFFFBF2, 0x05151B24, 0x291D2135, 0x29310231, 0x10372A35, 0x24200B22, 0xFBF400F2, 0x0B051104, 0x1F122E47, 0x372A2F3E, 0x21301727, 0x21312E4C, 0x3328371C, 0xF2E4FA02, 0x02F3F12F, 0x0E00301A, 0x240C292B, 0x273F3146, 0x31303D41, 0x31353B3C, 0x200F1BFD, 0x01F2E703, 0xD7C8D505, 0x020B1822, 0x1A0E3833, 0x34393B2B, 0x0A27132B, 0x172A2816, 0x0E03F3DF, 0xC5B6D0FA, 0xFE10220F, 0x17010905, 0xFF22191A, 0x282A1A19, 0x38433111, 0x06F500AE, 0xD2E6E713, 0x020F0314, 0x0F100B13, 0x08050F12, 0x150F1F23, 0x3D463114, 0x00EBE8B9, 0xCDE3030D, 0x0F091513, 0x03FD0E06, 0x03FAFEFF, 0x080D0326, 0x4D4F1D1D, 0xF5E4E6DC, 0xBAEAEE09, 0x13050201, 0x0F04F5F1, 0xF704F3FD, 0xFD0B102E, 0x5266372B, 0xF4E0DCE4, 0xDCDC0607, 0x0B02FE11, 0xF605FFEB, 0xDBDEDAE6, 0xEFF70925, 0x6E7E3E0E, 0xF4ECEDCA, 0xEEE9FB0B, 0x1A13181A, 0x1F311DEA, 0xD0DCD0CF, 0xE7E5EF35, 0x6C75490B, 0x02DED5C7, 0xE8F2180B, 0x15030600, 0x184140F1, 0xD9D5DDCC, 0xCAD4CB03, 0x435B4409, 0xFBF3C7F3, 0xF3111407, 0xFB0A0420, 0x394318F5, 0xD9FBDFDC, 0xCED2D0EF, 0xF30B10E3, 0x0DDEDAF8, 0xF805120B, 0x0C06181A, 0x274410FC, 0xE8E9E6E8, 0xE7E5F7F9, 0xF6EBE6F9, 0x1BF6E9E6, 0xD6F6EAF3, 0xF710161B, 0x1E23230A, 0xFDDCE6DD, 0xE7FCF7F6, 0x01ECD6F7, 0x2111F3E7, 0xC5CDEEF4, 0xFA0D070B, 0x16221001, 0xDFCFF3E9, 0xF300F6F4, 0x0401A7D7, 0xE814F206, 0xD3D2E7CC, 0xE5FBFC03, 0x010E00F1, 0xDCE4EE05, 0xF4ECEB07, 0x02E4B0D2, 0xFCECDF09, 0xF3F8FEE2, 0xD8E8E8FB, 0xEDDEE0EC, 0xE7000D19, 0x100E1113, 0x05C0B0F1, 0xF2E7F8FC, 0x03181D0B, 0x00FBF5F1, 0xEDE7E600, 0x15141018, 0x1011211E, 0x0BC8B4CB, 0xF3F10CEF, 0x172A2427, 0x241D0D1E, 0x0F1D1216, 0x19272417, 0x2E2F2E30, 0x0FD9BFEA, 0xFF1117FA, 0x101C2021, 0x342D2728, 0x3B332224, 0x2B2C341B, 0x1E243032, 0xFAE9EC07, 0x0801080F, 0x2F1E2428, 0x27202A2B, 0x27352D1C, 0x1D1F2921, 0x261C3A13, 0x0200FC04, 0x03FC071F, 0x33170D0F, 0x10090F0F, 0x1E292625, 0x1F1C1E11, 0x16090A18, 0xFB0D18F3, 0x0B072238, 0x1E1E00FB, 0x140F110D, 0x1B121214, 0x200FFC03, 0x0D00F70D, 0x0701080E, 0x0005011A, 0xFFD9F308, 0x0522150C, 0x251D2E18, 0x19011915, 0xF0F7F318, 0x0CDFE7FB, 0x04F70D21, 0xFEE6F208, 0x000C1616, 0x050D0D18, 0x1A241010, 0xF1FC2810, 0x31F8ECF6, 0x0D0DFCF3, 0x05E8E3E3, 0xFCF90212, 0x15F1E4E8, 0xDCF7D9DF, 0xFEF4FDFE, 0x0FFB05FD, 0xF20CF5F2, 0x03F3EFF3, 0xDAF0FA12, 0x01D9EAF4, 0xE2E0E7D0, 0xD0D4E1FD, 0x030202F2, 0x0AF6030B, 0xFE07FCFF, 0xFA0A0E0A, 0xE5FCF7F2, 0x010E02FA, 0x0C060B06, 0xFC06FB00, 0xF8F80805, 0xF8E7E6D9, 0xE7D3E0EC, 0xD8DCF9E8, 0xECDAD0DF, 0xDEE5D7E4, 0x0EF30D09, 0xF6FEEDF2, 0xF5D5E2C6, 0xBCA4A3AF, 0xCEECDEEB, 0xE5E6FFE7, 0xF4E6F8DD, 0xD4E102F5, 0xFBF60BEB, 0xF7040BEB, 0xF3D0F6ED, 0x14E708FC, 0x141A0B0F, 0x1D140EFD, 0xFFCDE7FD, 0x0D0D1F11, 0x0E1D1201, 0x0FFB0912, 0x08010F16, 0xFB080307, 0x070402DE, 0x080F2207, 0x0BFCFE0D, 0x0C281F12, 0x050B0A1E, 0x150D0504, 0x02EBFA00, 0xF5E4F3E1, 0xE20508F5, 0xFA0A161C, 0x181B2104, 0x1E161D24, 0x16231B1E, 0x1C2B2405, 0x1A07F9E9, 0xE9E10FF4, 0x021BF028, 0x18081515, 0x1C182413, 0x16192944, 0x2D2C2927, 0x24FE0409, 0xEAF5FFFF, 0xE2F0F90F, 0x20252018, 0x1E1C0609, 0x1E1E202A, 0x301F2921, 0x15151DED, 0xECF60B14, 0xF1FAFC1A, 0x12141323, 0x0A110603, 0x02131D23, 0x182B1E18, 0x14151DF4, 0xE4E2F617, 0x0904FD23, 0x0CFE0011, 0x02040A0E, 0x06212D31, 0x2A1E1C15, 0x17071307, 0xDFFFFE15, 0x0D020520, 0x17F40513, 0x1A1B2226, 0x3945353F, 0x363F1C09, 0x1C0F10FE, 0xF1000202, 0xF4F3F30F, 0x1E243031, 0x1E212928, 0x2122432F, 0x343D1E0A, 0x0EFDFFEC, 0xCDF7ED13, 0xF8FAEA1D, 0x2B281B21, 0x1E1DFFFC, 0x0D101F2F, 0x33292C15, 0x0AEEDACB, 0xC4D9D7EA, 0xE713FA18, 0x29140CF8, 0xFFF2FCE2, 0xF6FB0D1F, 0x272B2C1C, 0x09F7F2D0, 0xC7C1C5E1, 0xF82606F3, 0x13F3E0F4, 0xF1F7E5F7, 0xF2FA011B, 0x102A2B10, 0x230C19F9, 0xD6ACDCD7, 0x060D25FE, 0x10E1D8F8, 0xF5FFE2E6, 0xE5E1F608, 0x0B1A1609, 0x0AFA0BFE, 0xE48EBCE1, 0xF2240B06, 0xFCE5D9E9, 0xE2DCCECF, 0xD6E8ED0E, 0x0D0C010F, 0x0B00FC01, 0xCA8ED7ED, 0x1C1C2112, 0x04F2DDCD, 0xD5D4BFD3, 0xB9DEEA02, 0x08060A14, 0x1307F8DF, 0xBFAEF105, 0x0CF20F2A, 0x191B06E9, 0xDDC7BDBA, 0xBEEBF901, 0x0D01100C, 0xFFF1FEDF, 0xCBB1EE06, 0xF3F3F615, 0x081600FF, 0xF6E6D2CB, 0xE5E709F7, 0x0C0F0200, 0x06EAE4E9, 0xD4E1F0F3, 0x020C01FF, 0x150F1403, 0x09E9F6E3, 0xFDF2090F, 0x0FFAFEF4, 0xF9EDE6CA, 0xC8E5EB03, 0x03091001, 0xFEF201F8, 0xFE00040A, 0xFA0C120C, 0x0E07F7F2, 0xDEE3E6DC, 0xDCE5F807, 0x03FB1F24, 0x0DFF0F0B, 0x11141318, 0x15151D10, 0x1515FFE0, 0xDED0E2EC, 0xEDEDF2FB, 0x07091029, 0x393B4C3D, 0x2B363629, 0x252A1A1E, 0x1904FF09, 0x060501FB, 0xE8E2E8FE, 0xF6020FF6, 0x2D52516C, 0x765D5A5C, 0x5B422B27, 0x2F343D58, 0x59342A25, 0x28E4E2FE, 0x05FA0E19, 0x182D415F, 0x5A5B3F47, 0x4457705A, 0x565A4353, 0x54372818, 0x15010EFD, 0xF6FDF8F9, 0xF3FE0D1B, 0x1C020709, 0x08E5201C, 0x0902030F, 0x1D1C1C0D, 0xF2F40001
};
const int32_t L1_biases[8] = {
    7119, -5228, 12617, -3829, 23270, -2123, 9127, 188
};
const int32_t L1_bitperweight = 8 + 8;
const uint32_t L1_incoming_weights = 784;
const uint32_t L1_outgoing_weights = 8;
const float L1_input_scale = 0.00392157f;
const int32_t L1_input_zero_point = -128;
const float L1_output_scale = 0.10790069f;
const int32_t L1_output_zero_point = -128;
const float L1_weights_scale = 0.00597657f;
const int32_t L1_weights_zero_point = 0;

// Layer 2 Parameters
const uint32_t L2_weights[20] = {
    0x45CB548A, 0xC112F0E5, 0xA69B0F5B, 0x00D7F903, 0x41380111, 0xF6D6D995, 0xFF1018F7, 0xB6A5ED2F, 0x890B0EC4, 0x0E4DB9F1, 0x12EAC4BA, 0xE80959ED, 0xC30737D3, 0x4AEB1E96, 0x44C4EEFD, 0x4FDF8111, 0xE8FBB611, 0xB84219F9, 0xF02AADC6, 0x01EECA21
};
const int32_t L2_biases[10] = {
    62, 277, 10, -309, 92, 378, -132, -33, -624, 224
};
const int32_t L2_bitperweight = 8 + 8;
const uint32_t L2_incoming_weights = 8;
const uint32_t L2_outgoing_weights = 10;
const float L2_input_scale = 0.10790069f;
const int32_t L2_input_zero_point = -128;
const float L2_output_scale = 0.22473148f;
const int32_t L2_output_zero_point = 42;
const float L2_weights_scale = 0.00947858f;
const int32_t L2_weights_zero_point = 0;

// Quantized sample input images and their labels
const int8_t input_data_0[784] = {
    -128, -128, -128, -128, -128, -128, -128, -128, -128, -128, -128, -128, -128, -128, -128, -128, -128, -128, -128, -128, -128, -128, -128, -128, -128, -128, -128, -128, -128, -128, -128, -128, -128, -128, -128, -128, -128, -128, -128, -128, -128, -128, -128, -128, -128, -128, -128, -128, -128, -128, -128, -128, -128, -128, -128, -128, -128, -128, -128, -128, -128, -128, -128, -128, -128, -128, -128, -128, -128, -128, -128, -128, -128, -128, -128, -128, -128, -128, -128, -128, -128, -128, -128, -128, -128, -128, -128, -128, -128, -128, -128, -128, -128, -128, -128, -128, -128, -128, -128, -128, -128, -128, -128, -128, -128, -128, -128, -128, -128, -128, -128, -128, -128, -128, -128, -128, -128, -128, -128, -128, -128, -128, -128, -128, -128, -128, -128, -128, -128, -128, -128, -128, -128, -128, -128, -128, -128, -128, -128, -128, -128, -128, -128, -128, -128, -128, -128, -128, -128, -128, -128, -128, -128, -128, -128, -128, -128, -128, -128, -128, -128, -128, -128, -128, -128, -128, -128, -128, -128, -128, -128, -128, -128, -128, -128, -128, -128, -128, -128, -128, -128, -128, -128, -128, -128, -128, -128, -128, -128, -128, -128, -128, -128, -128, -128, -128, -128, -128, -128, -128, -128, -128, -44, 57, 31, 23, -68, -92, -128, -128, -128, -128, -128, -128, -128, -128, -128, -128, -128, -128, -128, -128, -128, -128, -128, -128, -128, -128, -128, -128, 94, 126, 126, 126, 126, 113, 70, 70, 70, 70, 70, 70, 70, 70, 42, -76, -128, -128, -128, -128, -128, -128, -128, -128, -128, -128, -128, -128, -61, -14, -56, -14, 35, 99, 126, 97, 126, 126, 126, 122, 101, 126, 126, 12, -128, -128, -128, -128, -128, -128, -128, -128, -128, -128, -128, -128, -128, -128, -128, -128, -128, -111, -62, -114, -61, -61, -61, -69, -107, 108, 126, -22, -128, -128, -128, -128, -128, -128, -128, -128, -128, -128, -128, -128, -128, -128, -128, -128, -128, -128, -128, -128, -128, -128, -128, -128, -45, 125, 81, -110, -128, -128, -128, -128, -128, -128, -128, -128, -128, -128, -128, -128, -128, -128, -128, -128, -128, -128, -128, -128, -128, -128, -128, -106, 105, 127, -45, -128, -128, -128, -128, -128, -128, -128, -128, -128, -128, -128, -128, -128, -128, -128, -128, -128, -128, -128, -128, -128, -128, -128, -128, 1, 126, 110, -84, -128, -128, -128, -128, -128, -128, -128, -128, -128, -128, -128, -128, -128, -128, -128, -128, -128, -128, -128, -128, -128, -128, -128, -69, 121, 126, -66, -128, -128, -128, -128, -128, -128, -128, -128, -128, -128, -128, -128, -128, -128, -128, -128, -128, -128, -128, -128, -128, -128, -128, -128, 5, 126, 59, -123, -128, -128, -128, -128, -128, -128, -128, -128, -128, -128, -128, -128, -128, -128, -128, -128, -128, -128, -128, -128, -128, -128, -128, -119, 77, 120, -70, -128, -128, -128, -128, -128, -128, -128, -128, -128, -128, -128, -128, -128, -128, -128, -128, -128, -128, -128, -128, -128, -128, -128, -128, -2, 126, 54, -128, -128, -128, -128, -128, -128, -128, -128, -128, -128, -128, -128, -128, -128, -128, -128, -128, -128, -128, -128, -128, -128, -128, -128, -53, 123, 112, -71, -128, -128, -128, -128, -128, -128, -128, -128, -128, -128, -128, -128, -128, -128, -128, -128, -128, -128, -128, -128, -128, -128, -128, -109, 93, 126, 38, -128, -128, -128, -128, -128, -128, -128, -128, -128, -128, -128, -128, -128, -128, -128, -128, -128, -128, -128, -128, -128, -128, -128, -125, 75, 126, 91, -93, -128, -128, -128, -128, -128, -128, -128, -128, -128, -128, -128, -128, -128, -128, -128, -128, -128, -128, -128, -128, -128, -128, -128, -90, 126, 126, -51, -128, -128, -128, -128, -128, -128, -128, -128, -128, -128, -128, -128, -128, -128, -128, -128, -128, -128, -128, -128, -128, -128, -128, -97, 96, 126, -13, -127, -128, -128, -128, -128, -128, -128, -128, -128, -128, -128, -128, -128, -128, -128, -128, -128, -128, -128, -128, -128, -128, -128, -128, 5, 126, 126, -76, -128, -128, -128, -128, -128, -128, -128, -128, -128, -128, -128, -128, -128, -128, -128, -128, -128, -128, -128, -128, -128, -128, -128, -67, 114, 126, 126, -76, -128, -128, -128, -128, -128, -128, -128, -128, -128, -128, -128, -128, -128, -128, -128, -128, -128, -128, -128, -128, -128, -128, -128, -7, 126, 126, 91, -88, -128, -128, -128, -128, -128, -128, -128, -128, -128, -128, -128, -128, -128, -128, -128, -128, -128, -128, -128, -128, -128, -128, -128, -7, 126, 79, -110, -128, -128, -128, -128, -128, -128, -128, -128, -128, -128, -128, -128, -128, -128, -128, -128, -128, -128, -128, -128, -128, -128, -128, -128, -128, -128, -128, -128, -128, -128, -128, -128, -128, -128, -128, -128, -128, -128, -128, -128, -128, -128
};
const uint8_t label_0 = 7;
const int8_t input_data_1[784] = {
    -128, -128, -128, -128, -128, -128, -128, -128, -128, -128, -128, -128, -128, -128, -128, -128, -128, -128, -128, -128, -128, -128, -128, -128, -128, -128, -128, -128, -128, -128, -128, -128, -128, -128, -128, -128, -128, -128, -128, -128, -128, -128, -128, -128, -128, -128, -128, -128, -128, -128, -128, -128, -128, -128, -128, -128, -128, -128, -128, -128, -128, -128, -128, -128, -128, -128, -128, -128, -128, -128, -128, -128, -128, -128, -128, -128, -128, -128, -128, -128, -128, -128, -128, -128, -128, -128, -128, -128, -128, -128, -128, -128, -128, -128, -12, -3, 43, 127, 127, 22, -35, -128, -128, -128, -128, -128, -128, -128, -128, -128, -128, -128, -128, -128, -128, -128, -128, -128, -128, -128, -128, 41, 125, 125, 125, 125, 125, 125, 90, -98, -128, -128, -128, -128, -128, -128, -128, -128, -128, -128, -128, -128, -128, -128, -128, -128, -128, -128, 41, 125, 125, 125, 85, 14, 48, 125, 125, -6, -128, -128, -128, -128, -128, -128, -128, -128, -128, -128, -128, -128, -128, -128, -128, -128, -128, -76, 122, 125, 82, -96, -116, -128, -122, 78, 125, 12, -128, -128, -128, -128, -128, -128, -128, -128, -128, -128, -128, -128, -128, -128, -128, -128, -128, -51, 123, 82, -103, -128, -128, -128, -6, 120, 125, -63, -128, -128, -128, -128, -128, -128, -128, -128, -128, -128, -128, -128, -128, -128, -128, -128, -128, -128, -97, -110, -128, -128, -128, -128, 81, 125, 125, -63, -128, -128, -128, -128, -128, -128, -128, -128, -128, -128, -128, -128, -128, -128, -128, -128, -128, -128, -128, -128, -128, -128, -128, -11, 119, 125, 70, -118, -128, -128, -128, -128, -128, -128, -128, -128, -128, -128, -128, -128, -128, -128, -128, -128, -128, -128, -128, -128, -128, -128, -52, 119, 125, 103, -65, -128, -128, -128, -128, -128, -128, -128, -128, -128, -128, -128, -128, -128, -128, -128, -128, -128, -128, -128, -128, -128, -128, -128, 0, 125, 125, 16, -128, -128, -128, -128, -128, -128, -128, -128, -128, -128, -128, -128, -128, -128, -128, -128, -128, -128, -128, -128, -128, -128, -128, 48, 118, 125, 31, -116, -128, -128, -128, -128, -128, -128, -128, -128, -128, -128, -128, -128, -128, -128, -128, -128, -128, -128, -128, -128, -128, -128, -103, 106, 125, 105, -93, -128, -128, -128, -128, -128, -128, -128, -128, -128, -128, -128, -128, -128, -128, -128, -128, -128, -128, -128, -128, -128, -128, -128, 70, 125, 125, 13, -128, -128, -128, -128, -128, -128, -128, -128, -128, -128, -128, -128, -128, -128, -128, -128, -128, -128, -128, -128, -128, -128, -128, -50, 120, 125, 61, -116, -128, -128, -128, -128, -128, -128, -128, -128, -128, -128, -128, -128, -128, -128, -128, -128, -128, -128, -128, -128, -128, -128, -109, 72, 125, 125, 13, -128, -128, -128, -128, -128, -128, -128, -128, -128, -128, -128, -128, -128, -128, -128, -128, -128, -128, -128, -128, -128, -128, -128, 6, 125, 125, 45, -116, -128, -128, -128, -128, -128, -128, -128, -128, -128, -128, -128, -128, -128, -128, -128, -128, -128, -128, -128, -128, -128, -128, -128, 120, 125, 125, -103, -128, -128, -128, -128, -128, -128, -128, -128, -128, -128, -128, -128, -128, -128, -128, -128, -128, -128, -128, -128, -128, -128, -128, -128, 120, 125, 125, -85, -108, -108, -108, -108, -123, -128, -123, -108, -108, -91, 22, 22, 22, 19, -118, -128, -128, -128, -128, -128, -128, -128, -128, -128, 120, 125, 125, 125, 125, 125, 125, 125, 40, 15, 38, 125, 125, 125, 125, 125, 125, 125, -5, -128, -128, -128, -128, -128, -128, -128, -128, -128, 46, 125, 125, 125, 125, 125, 125, 125, 125, 125, 125, 125, 121, 119, 119, 41, -11, -11, -71, -128, -128, -128, -128, -128, -128, -128, -128, -128, -128, -10, -5, -5, -5, 38, 125, 125, 125, 27, -5, -5, -87, -128, -128, -128, -128, -128, -128, -128, -128, -128, -128, -128, -128, -128, -128, -128, -128, -128, -128, -128, -128, -128, -128, -128, -128, -128, -128, -128, -128, -128, -128, -128, -128, -128, -128, -128, -128, -128, -128, -128, -128, -128, -128, -128, -128, -128, -128, -128, -128, -128, -128, -128, -128, -128, -128, -128, -128, -128, -128, -128, -128, -128, -128, -128, -128, -128, -128, -128, -128, -128, -128, -128, -128, -128, -128, -128, -128, -128, -128, -128, -128, -128, -128, -128, -128, -128, -128, -128, -128, -128, -128, -128, -128, -128, -128, -128, -128, -128, -128, -128, -128, -128, -128, -128, -128, -128, -128, -128, -128, -128, -128, -128, -128, -128, -128, -128, -128, -128, -128, -128, -128, -128, -128, -128, -128, -128, -128, -128, -128, -128, -128, -128, -128, -128, -128, -128, -128, -128, -128, -128, -128, -128, -128, -128, -128, -128, -128, -128
};
const uint8_t label_1 = 2;
const int8_t input_data_2[784] = {
    -128, -128, -128, -128, -128, -128, -128, -128, -128, -128, -128, -128, -128, -128, -128, -128, -128, -128, -128, -128, -128, -128, -128, -128, -128, -128, -128, -128, -128, -128, -128, -128, -128, -128, -128, -128, -128, -128, -128, -128, -128, -128, -128, -128, -128, -128, -128, -128, -128, -128, -128, -128, -128, -128, -128, -128, -128, -128, -128, -128, -128, -128, -128, -128, -128, -128, -128, -128, -128, -128, -128, -128, -128, -128, -128, -128, -128, -128, -128, -128, -128, -128, -128, -128, -128, -128, -128, -128, -128, -128, -128, -128, -128, -128, -128, -128, -128, -128, -128, -128, -128, -128, -128, -128, -128, -128, -128, -128, -128, -128, -128, -128, -128, -128, -128, -128, -128, -128, -128, -128, -128, -128, -128, -128, -128, -128, -128, -128, -90, 126, -19, -128, -128, -128, -128, -128, -128, -128, -128, -128, -128, -128, -128, -128, -128, -128, -128, -128, -128, -128, -128, -128, -128, -128, -128, -128, -41, 124, -46, -128, -128, -128, -128, -128, -128, -128, -128, -128, -128, -128, -128, -128, -128, -128, -128, -128, -128, -128, -128, -128, -128, -128, -128, -128, 7, 113, -128, -128, -128, -128, -128, -128, -128, -128, -128, -128, -128, -128, -128, -128, -128, -128, -128, -128, -128, -128, -128, -128, -128, -128, -128, -83, 116, 22, -128, -128, -128, -128, -128, -128, -128, -128, -128, -128, -128, -128, -128, -128, -128, -128, -128, -128, -128, -128, -128, -128, -128, -128, -128, -44, 126, -65, -128, -128, -128, -128, -128, -128, -128, -128, -128, -128, -128, -128, -128, -128, -128, -128, -128, -128, -128, -128, -128, -128, -128, -128, -128, 74, 95, -117, -128, -128, -128, -128, -128, -128, -128, -128, -128, -128, -128, -128, -128, -128, -128, -128, -128, -128, -128, -128, -128, -128, -128, -128, -96, 126, 88, -128, -128, -128, -128, -128, -128, -128, -128, -128, -128, -128, -128, -128, -128, -128, -128, -128, -128, -128, -128, -128, -128, -128, -128, -128, -33, 126, 67, -128, -128, -128, -128, -128, -128, -128, -128, -128, -128, -128, -128, -128, -128, -128, -128, -128, -128, -128, -128, -128, -128, -128, -128, -128, 12, 126, -51, -128, -128, -128, -128, -128, -128, -128, -128, -128, -128, -128, -128, -128, -128, -128, -128, -128, -128, -128, -128, -128, -128, -128, -128, -71, 109, 77, -120, -128, -128, -128, -128, -128, -128, -128, -128, -128, -128, -128, -128, -128, -128, -128, -128, -128, -128, -128, -128, -128, -128, -128, -128, -4, 127, 37, -128, -128, -128, -128, -128, -128, -128, -128, -128, -128, -128, -128, -128, -128, -128, -128, -128, -128, -128, -128, -128, -128, -128, -128, -128, 43, 126, -47, -128, -128, -128, -128, -128, -128, -128, -128, -128, -128, -128, -128, -128, -128, -128, -128, -128, -128, -128, -128, -128, -128, -128, -128, -104, 104, 87, -128, -128, -128, -128, -128, -128, -128, -128, -128, -128, -128, -128, -128, -128, -128, -128, -128, -128, -128, -128, -128, -128, -128, -128, -128, -8, 126, 31, -128, -128, -128, -128, -128, -128, -128, -128, -128, -128, -128, -128, -128, -128, -128, -128, -128, -128, -128, -128, -128, -128, -128, -128, -128, 23, 126, 14, -128, -128, -128, -128, -128, -128, -128, -128, -128, -128, -128, -128, -128, -128, -128, -128, -128, -128, -128, -128, -128, -128, -128, -128, -128, 100, 126, -62, -128, -128, -128, -128, -128, -128, -128, -128, -128, -128, -128, -128, -128, -128, -128, -128, -128, -128, -128, -128, -128, -128, -128, -128, -67, 123, 126, -62, -128, -128, -128, -128, -128, -128, -128, -128, -128, -128, -128, -128, -128, -128, -128, -128, -128, -128, -128, -128, -128, -128, -128, -128, 13, 126, 77, -125, -128, -128, -128, -128, -128, -128, -128, -128, -128, -128, -128, -128, -128, -128, -128, -128, -128, -128, -128, -128, -128, -128, -128, -118, 87, 126, -7, -128, -128, -128, -128, -128, -128, -128, -128, -128, -128, -128, -128, -128, -128, -128, -128, -128, -128, -128, -128, -128, -128, -128, -128, -123, 70, 48, -118, -128, -128, -128, -128, -128, -128, -128, -128, -128, -128, -128, -128, -128, -128, -128, -128, -128, -128, -128, -128, -128, -128, -128, -128, -128, -128, -128, -128, -128, -128, -128, -128, -128, -128, -128, -128, -128, -128, -128, -128, -128, -128, -128, -128, -128, -128, -128, -128, -128, -128, -128, -128, -128, -128, -128, -128, -128, -128, -128, -128, -128, -128, -128, -128, -128, -128, -128, -128, -128, -128, -128, -128, -128, -128, -128, -128, -128, -128, -128, -128, -128, -128, -128, -128, -128, -128, -128, -128, -128, -128, -128, -128, -128, -128, -128, -128, -128, -128, -128, -128, -128, -128, -128, -128, -128, -128, -128, -128, -128, -128, -128, -128, -128, -128, -128, -128, -128, -128, -128, -128, -128, -128, -128, -128, -128, -128
};
const uint8_t label_2 = 1;
const int8_t input_data_3[784] = {
    -128, -128, -128, -128, -128, -128, -128, -128, -128, -128, -128, -128, -128, -128, -128, -128, -128, -128, -128, -128, -128, -128, -128, -128, -128, -128, -128, -128, -128, -128, -128, -128, -128, -128, -128, -128, -128, -128, -128, -128, -128, -128, -128, -128, -128, -128, -128, -128, -128, -128, -128, -128, -128, -128, -128, -128, -128, -128, -128, -128, -128, -128, -128, -128, -128, -128, -128, -128, -128, -128, -128, -128, -128, -128, -128, -128, -128, -128, -128, -128, -128, -128, -128, -128, -128, -128, -128, -128, -128, -128, -128, -128, -128, -128, -128, -128, -128, -128, -128, -128, -128, -128, -128, -128, -128, -128, -128, -128, -128, -128, -128, -128, -128, -128, -128, -128, -128, -128, -128, -128, -128, -128, -128, -128, -117, 22, 125, 74, -97, -128, -128, -128, -128, -128, -128, -128, -128, -128, -128, -128, -128, -128, -128, -128, -128, -128, -128, -128, -128, -128, -128, -128, -91, 123, 123, 125, -21, -128, -128, -128, -128, -128, -128, -128, -128, -128, -128, -128, -128, -128, -128, -128, -128, -128, -128, -128, -128, -128, -128, -107, 69, 123, 123, 125, -21, -128, -128, -128, -128, -128, -128, -128, -128, -128, -128, -128, -128, -128, -128, -128, -128, -128, -128, -128, -128, -128, -18, 62, 123, 123, 123, 125, 41, -19, -66, -128, -128, -128, -128, -128, -128, -128, -128, -128, -128, -128, -128, -128, -128, -128, -128, -128, -128, -128, 125, 123, 123, 123, 123, 125, 123, 123, 92, -77, -128, -128, -128, -128, -128, -128, -128, -128, -128, -128, -128, -128, -128, -128, -128, -128, -128, 54, 127, 125, 125, 125, 125, 106, 94, 125, 125, 125, -128, -128, -128, -128, -128, -128, -128, -128, -128, -128, -128, -128, -128, -128, -128, -128, -65, 93, 125, 123, 123, 123, 19, -51, -66, 0, 123, 123, -23, -128, -128, -128, -128, -128, -128, -128, -128, -128, -128, -128, -128, -128, -128, -96, 103, 123, 125, 123, 92, 9, -118, -128, -128, -97, 102, 123, 115, -15, -123, -128, -128, -128, -128, -128, -128, -128, -128, -128, -128, -128, -128, -91, 123, 123, 125, 60, -108, -128, -128, -128, -128, -128, -19, 123, 125, 123, -93, -128, -128, -128, -128, -128, -128, -128, -128, -128, -128, -128, -128, -91, 123, 123, 73, -98, -128, -128, -128, -128, -128, -128, -97, 72, 125, 123, -93, -128, -128, -128, -128, -128, -128, -128, -128, -128, -128, -128, -128, -91, 125, 125, -128, -128, -128, -128, -128, -128, -128, -128, -96, 74, 127, 125, 36, -128, -128, -128, -128, -128, -128, -128, -128, -128, -128, -128, -128, 12, 123, 123, -128, -128, -128, -128, -128, -128, -128, -128, -19, 123, 125, 123, -93, -128, -128, -128, -128, -128, -128, -128, -128, -128, -128, -128, -128, 89, 123, 123, -128, -128, -128, -128, -128, -128, -107, -65, 103, 123, 125, 102, -98, -128, -128, -128, -128, -128, -128, -128, -128, -128, -128, -128, -128, 89, 123, 123, -128, -128, -128, -128, -128, -128, 16, 123, 123, 123, 93, -67, -128, -128, -128, -128, -128, -128, -128, -128, -128, -128, -128, -128, -128, 89, 123, 123, -128, -128, -128, -128, -128, 54, 93, 123, 123, 123, 52, -128, -128, -128, -128, -128, -128, -128, -128, -128, -128, -128, -128, -128, -128, 90, 125, 125, -55, -55, 100, 125, 125, 127, 125, 125, 125, 125, -128, -128, -128, -128, -128, -128, -128, -128, -128, -128, -128, -128, -128, -128, -128, -15, 123, 123, 125, 123, 123, 123, 123, 125, 123, 123, 123, 19, -128, -128, -128, -128, -128, -128, -128, -128, -128, -128, -128, -128, -128, -128, -128, -97, 102, 123, 125, 123, 123, 123, 123, 125, 102, 61, -93, -118, -128, -128, -128, -128, -128, -128, -128, -128, -128, -128, -128, -128, -128, -128, -128, -128, -66, 14, 125, 123, 123, 123, 123, 125, -21, -128, -128, -128, -128, -128, -128, -128, -128, -128, -128, -128, -128, -128, -128, -128, -128, -128, -128, -128, -128, -128, -56, 46, 123, 45, -57, -56, -98, -128, -128, -128, -128, -128, -128, -128, -128, -128, -128, -128, -128, -128, -128, -128, -128, -128, -128, -128, -128, -128, -128, -128, -128, -128, -128, -128, -128, -128, -128, -128, -128, -128, -128, -128, -128, -128, -128, -128, -128, -128, -128, -128, -128, -128, -128, -128, -128, -128, -128, -128, -128, -128, -128, -128, -128, -128, -128, -128, -128, -128, -128, -128, -128, -128, -128, -128, -128, -128, -128, -128, -128, -128, -128, -128, -128, -128, -128, -128, -128, -128, -128, -128, -128, -128, -128, -128, -128, -128, -128, -128, -128, -128, -128, -128, -128, -128, -128, -128, -128, -128, -128, -128, -128, -128, -128, -128, -128, -128, -128, -128, -128, -128, -128, -128, -128, -128, -128, -128, -128, -128, -128, -128
};
const uint8_t label_3 = 0;
