#ifndef MNIST_MODEL_DATA_H_
#define MNIST_MODEL_DATA_H_

const unsigned char mnist_quantized_model_tflite_data[] = {
    0x20, 0x00, 0x00, 0x00, 0x54, 0x46, 0x4c, 0x33, 0x00, 0x00, 0x00, 0x00, 0x14, 0x00, 0x20, 0x00, 0x1c, 0x00, 0x18, 0x00, 0x14, 0x00, 0x10, 0x00, 0x0c, 0x00, 0x00, 0x00, 0x08, 0x00, 0x04, 0x00, 0x14, 0x00, 0x00, 0x00, 0x1c, 0x00, 0x00, 0x00, 0x94, 0x00, 0x00, 0x00, 0xec, 0x00, 0x00, 0x00, 0x14, 0x1b, 0x00, 0x00, 0x24, 0x1b, 0x00, 0x00, 0x94, 0x21, 0x00, 0x00, 0x03, 0x00, 0x00, 0x00, 0x01, 0x00, 0x00, 0x00, 0x10, 0x00, 0x00, 0x00, 0x00, 0x00, 0x0a, 0x00, 0x10, 0x00, 0x0c, 0x00, 0x08, 0x00, 0x04, 0x00, 0x0a, 0x00, 0x00, 0x00, 0x0c, 0x00, 0x00, 0x00, 0x1c, 0x00, 0x00, 0x00, 0x38, 0x00, 0x00, 0x00, 0x0f, 0x00, 0x00, 0x00, 0x73, 0x65, 0x72, 0x76, 0x69, 0x6e, 0x67, 0x5f, 0x64, 0x65, 0x66, 0x61, 0x75, 0x6c, 0x74, 0x00, 0x01, 0x00, 0x00, 0x00, 0x04, 0x00, 0x00, 0x00, 0x94, 0xff, 0xff, 0xff, 0x09, 0x00, 0x00, 0x00, 0x04, 0x00, 0x00, 0x00, 0x07, 0x00, 0x00, 0x00, 0x64, 0x65, 0x6e, 0x73, 0x65, 0x5f, 0x31, 0x00, 0x01, 0x00, 0x00, 0x00, 0x04, 0x00, 0x00, 0x00, 0xde, 0xe4, 0xff, 0xff, 0x04, 0x00, 0x00, 0x00, 0x0d, 0x00, 0x00, 0x00, 0x66, 0x6c, 0x61, 0x74, 0x74, 0x65, 0x6e, 0x5f, 0x69, 0x6e, 0x70, 0x75, 0x74, 0x00, 0x00, 0x00, 0x02, 0x00, 0x00, 0x00, 0x34, 0x00, 0x00, 0x00, 0x04, 0x00, 0x00, 0x00, 0xdc, 0xff, 0xff, 0xff, 0x0c, 0x00, 0x00, 0x00, 0x04, 0x00, 0x00, 0x00, 0x13, 0x00, 0x00, 0x00, 0x43, 0x4f, 0x4e, 0x56, 0x45, 0x52, 0x53, 0x49, 0x4f, 0x4e, 0x5f, 0x4d, 0x45, 0x54, 0x41, 0x44, 0x41, 0x54, 0x41, 0x00, 0x08, 0x00, 0x0c, 0x00, 0x08, 0x00, 0x04, 0x00, 0x08, 0x00, 0x00, 0x00, 0x0b, 0x00, 0x00, 0x00, 0x04, 0x00, 0x00, 0x00, 0x13, 0x00, 0x00, 0x00, 0x6d, 0x69, 0x6e, 0x5f, 0x72, 0x75, 0x6e, 0x74, 0x69, 0x6d, 0x65, 0x5f, 0x76, 0x65, 0x72, 0x73, 0x69, 0x6f, 0x6e, 0x00, 0x0d, 0x00, 0x00, 0x00, 0x24, 0x1a, 0x00, 0x00, 0x1c, 0x1a, 0x00, 0x00, 0x04, 0x1a, 0x00, 0x00, 0xcc, 0x19, 0x00, 0x00, 0x6c, 0x19, 0x00, 0x00, 0x3c, 0x19, 0x00, 0x00, 0xac, 0x00, 0x00, 0x00, 0xa4, 0x00, 0x00, 0x00, 0x9c, 0x00, 0x00, 0x00, 0x94, 0x00, 0x00, 0x00, 0x8c, 0x00, 0x00, 0x00, 0x6c, 0x00, 0x00, 0x00, 0x04, 0x00, 0x00, 0x00, 0x8e, 0xe5, 0xff, 0xff, 0x04, 0x00, 0x00, 0x00, 0x58, 0x00, 0x00, 0x00, 0x0c, 0x00, 0x00, 0x00, 0x08, 0x00, 0x0e, 0x00, 0x08, 0x00, 0x04, 0x00, 0x08, 0x00, 0x00, 0x00, 0x10, 0x00, 0x00, 0x00, 0x28, 0x00, 0x00, 0x00, 0x00, 0x00, 0x06, 0x00, 0x08, 0x00, 0x04, 0x00, 0x06, 0x00, 0x00, 0x00, 0x04, 0x00, 0x00, 0x00, 0x01, 0x00, 0x00, 0x00, 0xeb, 0x03, 0x00, 0x00, 0x00, 0x00, 0x0a, 0x00, 0x10, 0x00, 0x0c, 0x00, 0x08, 0x00, 0x04, 0x00, 0x0a, 0x00, 0x00, 0x00, 0x02, 0x00, 0x00, 0x00, 0x02, 0x00, 0x00, 0x00, 0x04, 0x00, 0x00, 0x00, 0x06, 0x00, 0x00, 0x00, 0x32, 0x2e, 0x31, 0x35, 0x2e, 0x30, 0x00, 0x00, 0xf2, 0xe5, 0xff, 0xff, 0x04, 0x00, 0x00, 0x00, 0x10, 0x00, 0x00, 0x00, 0x31, 0x2e, 0x31, 0x34, 0x2e, 0x30, 0x00, 0x00, 0x00, 0x00, 0x00, 0x00, 0x00, 0x00, 0x00, 0x00, 0xe8, 0xe0, 0xff, 0xff, 0xec, 0xe0, 0xff, 0xff, 0xf0, 0xe0, 0xff, 0xff, 0xf4, 0xe0, 0xff, 0xff, 0x1e, 0xe6, 0xff, 0xff, 0x04, 0x00, 0x00, 0x00, 0x80, 0x18, 0x00, 0x00, 0xf5, 0x05, 0x05, 0xf5, 0x0a, 0xf7, 0xfd, 0x0e, 0x0d, 0xfb, 0xfe, 0x0e, 0x01, 0x10, 0x18, 0xfb, 0xff, 0x0f, 0x0e, 0xff, 0x06, 0x05, 0x05, 0xfb, 0xf6, 0x0a, 0x0f, 0x0e, 0xfb, 0x09, 0xfe, 0x0a, 0xf7, 0x13, 0x12, 0x0d, 0x05, 0x06, 0x07, 0x0f, 0x00, 0xf8, 0xf2, 0xfc, 0x24, 0x14, 0x0c, 0x0e, 0x0f, 0xe1, 0x22, 0x21, 0xf7, 0xf8, 0x0e, 0x0e, 0xf9, 0x07, 0xf8, 0xf8, 0xf4, 0x02, 0xfe, 0x05, 0x05, 0x1e, 0x0f, 0x34, 0x1b, 0x03, 0x0d, 0xfb, 0x1b, 0x30, 0x1a, 0x0a, 0xfb, 0xe5, 0xdc, 0xef, 0x06, 0x1b, 0x0a, 0xfb, 0xfc, 0x04, 0xf9, 0x07, 0x07, 0x1e, 0x25, 0x28, 0x48, 0x43, 0x4f, 0x4f, 0x57, 0x49, 0x31, 0x2c, 0x29, 0x2e, 0x2d, 0x29, 0x2f, 0x0e, 0xe8, 0xe7, 0x10, 0x1d, 0x1a, 0xf4, 0x08, 0x0f, 0x06, 0x13, 0x0b, 0x2d, 0x39, 0x3e, 0x27, 0x38, 0x3a, 0x27, 0x21, 0x1b, 0x0a, 0x0a, 0x0c, 0x18, 0x10, 0x0c, 0xff, 0xf5, 0xf7, 0x00, 0x0e, 0x1a, 0x1f, 0x0a, 0xfd, 0x08, 0xfa, 0x1b, 0x2b, 0x28, 0x1f, 0x17, 0x1f, 0x13, 0x1d, 0x11, 0x14, 0x0b, 0x02, 0x0b, 0x0a, 0x0f, 0x09, 0x07, 0xfe, 0xfe, 0x09, 0xf7, 0x1d, 0x29, 0x01, 0x1b, 0x06, 0x08, 0x11, 0x2f, 0x24, 0x18, 0x18, 0x12, 0x0e, 0x1c, 0x25, 0x15, 0x18, 0x1c, 0x1b, 0x19, 0x0d, 0x07, 0x0b, 0x08, 0xff, 0x05, 0xf9, 0xf7, 0x1a, 0x1e, 0x26, 0x24, 0xf0, 0x1d, 0x0a, 0x0f, 0x27, 0x24, 0x03, 0x07, 0x14, 0x0e, 0x0c, 0x1f, 0x1f, 0x1e, 0x26, 0x11, 0x17, 0x17, 0x06, 0x16, 0x08, 0xff, 0xfd, 0xde, 0xfb, 0x2e, 0x0c, 0x1d, 0xf2, 0x25, 0x11, 0x11, 0x11, 0xfc, 0x05, 0x02, 0x05, 0x12, 0x15, 0x1b, 0x10, 0x14, 0x31, 0x19, 0x0a, 0x1a, 0x04, 0x0e, 0x10, 0x11, 0x06, 0xf9, 0xfa, 0x20, 0x23, 0x28, 0x06, 0x1f, 0x17, 0x19, 0x20, 0x02, 0x0b, 0x0d, 0xfc, 0xfe, 0xf4, 0x02, 0xfe, 0xff, 0x25, 0x2f, 0x0b, 0x00, 0x03, 0x04, 0x02, 0x07, 0x10, 0xf0, 0x0f, 0x2d, 0xfe, 0x11, 0x11, 0x13, 0x2d, 0x41, 0x06, 0x00, 0xf8, 0xef, 0xf1, 0xe0, 0xd9, 0xd0, 0xd9, 0xf3, 0x04, 0x07, 0x13, 0xf7, 0xf1, 0xd5, 0xf1, 0xd5, 0xe2, 0xc1, 0xd4, 0x08, 0x0b, 0x0a, 0x07, 0x0a, 0x18, 0x2d, 0x0f, 0xfd, 0xe5, 0xd3, 0xc7, 0xca, 0xd2, 0xdf, 0xd6, 0xdf, 0xe0, 0xe9, 0xe9, 0x05, 0xff, 0xef, 0xd7, 0xbd, 0xac, 0xa5, 0xa3, 0xeb, 0x16, 0xf5, 0xf5, 0x11, 0x23, 0x0c, 0xe9, 0xe2, 0xbe, 0xcf, 0xe3, 0xd1, 0xf7, 0xe6, 0xe3, 0xe4, 0xe7, 0xf0, 0xf9, 0xfc, 0x12, 0xfb, 0xf8, 0xd2, 0xb3, 0x8d, 0xa5, 0xdf, 0xfb, 0xf0, 0xea, 0x08, 0x03, 0x0f, 0xe3, 0xce, 0xcb, 0xd6, 0xe9, 0xfb, 0xf1, 0xee, 0xf4, 0x02, 0xfe, 0xeb, 0xfa, 0x05, 0x0d, 0x05, 0xfb, 0xec, 0xcd, 0xc1, 0xb9, 0x07, 0xfd, 0x03, 0x1d, 0x04, 0x12, 0x10, 0xf3, 0xc7, 0xe4, 0xfd, 0x09, 0x08, 0x0c, 0xeb, 0xef, 0x09, 0xff, 0xe9, 0xf5, 0xfc, 0x0f, 0xff, 0x09, 0x05, 0xfd, 0xfc, 0x07, 0x0e, 0x39, 0xfb, 0x24, 0x11, 0x15, 0x1e, 0xf9, 0xee, 0xf5, 0xe8, 0x02, 0xfd, 0xfc, 0xfe, 0xfb, 0x01, 0xfb, 0xf3, 0xfd, 0xfe, 0x0d, 0x0a, 0x1b, 0x0f, 0x0d, 0x0b, 0x28, 0x32, 0x25, 0x20, 0x19, 0x20, 0x20, 0x47, 0x17, 0x13, 0xfb, 0xd1, 0xd2, 0xf0, 0xfa, 0xfd, 0x10, 0xf9, 0xf2, 0xf1, 0xea, 0x12, 0x1e, 0x1e, 0x13, 0x1a, 0x33, 0x20, 0x38, 0x40, 0x4a, 0x30, 0x04, 0x1d, 0x13, 0x62, 0x3b, 0x1b, 0xfc, 0xe1, 0xcb, 0xc7, 0xe4, 0xe5, 0xe3, 0xe6, 0xe2, 0xf6, 0xf8, 0x17, 0x12, 0x1f, 0x0b, 0x20, 0x2b, 0x15, 0x19, 0x4a, 0x2c, 0x20, 0x1e, 0x0c, 0x04, 0x58, 0x3d, 0x24, 0x15, 0x00, 0xeb, 0xd9, 0xce, 0xcc, 0xd3, 0xf5, 0xf8, 0x11, 0x24, 0x28, 0x1b, 0x24, 0x1f, 0x24, 0x28, 0x1d, 0x2b, 0x3d, 0x21, 0x14, 0xf0, 0x1c, 0x05, 0x48, 0x3b, 0x25, 0x24, 0x13, 0x03, 0xfd, 0xf6, 0xf9, 0xf7, 0x0b, 0x13, 0x19, 0x13, 0x1e, 0x23, 0x0f, 0x11, 0x15, 0x10, 0x0d, 0x2f, 0x4b, 0x25, 0x11, 0xfc, 0x0e, 0xfc, 0x4d, 0x31, 0x29, 0x1d, 0x1a, 0x1f, 0x24, 0x19, 0x12, 0x0e, 0x08, 0x1a, 0x08, 0x1c, 0x0e, 0x14, 0x0f, 0x1a, 0x0a, 0x08, 0x08, 0x28, 0x27, 0x21, 0x1c, 0xff, 0x11, 0x34, 0x3c, 0x30, 0x12, 0x05, 0x10, 0x0d, 0x0b, 0x0d, 0x10, 0x0f, 0x02, 0x04, 0x16, 0x0d, 0x14, 0x0f, 0x1d, 0x06, 0xfd, 0x01, 0x14, 0x16, 0x1f, 0x22, 0x06, 0xfc, 0xf8, 0x2b, 0x26, 0x1b, 0xfd, 0x0d, 0x03, 0x0e, 0x11, 0x06, 0x07, 0x03, 0xfe, 0xfa, 0x02, 0x0e, 0x06, 0x0c, 0x1a, 0x0a, 0xfb, 0x16, 0x22, 0x16, 0x18, 0x03, 0xf2, 0x07, 0xf4, 0x21, 0x4b, 0x47, 0x34, 0x1f, 0x16, 0x03, 0x04, 0x17, 0x03, 0xf8, 0xf2, 0xf9, 0xf2, 0xec, 0xf6, 0xfd, 0x08, 0xf8, 0x0c, 0x0e, 0x20, 0x34, 0x2a, 0x31, 0xf3, 0x00, 0xfb, 0x02, 0x4a, 0x50, 0x4c, 0x3f, 0x32, 0x26, 0x15, 0x18, 0x13, 0x07, 0x1b, 0x08, 0x00, 0x06, 0x0e, 0xe6, 0xea, 0xe5, 0x10, 0x24, 0x05, 0x31, 0x12, 0x1d, 0xfb, 0xf5, 0x02, 0x0c, 0x12, 0x2f, 0x3d, 0x4b, 0x50, 0x4c, 0x51, 0x42, 0x3c, 0x41, 0x37, 0x1b, 0x1d, 0x13, 0x1a, 0x11, 0x19, 0xfc, 0xfc, 0x19, 0x11, 0x27, 0xfb, 0x00, 0xf2, 0x0c, 0xfd, 0xff, 0xe1, 0xfe, 0xef, 0x07, 0x28, 0x2b, 0x24, 0x28, 0x25, 0x28, 0x40, 0x2e, 0x4b, 0x38, 0x3d, 0x19, 0x30, 0x16, 0x05, 0x02, 0xf3, 0x11, 0x09, 0x05, 0x0c, 0x09, 0x01, 0x02, 0x06, 0x02, 0x18, 0x0c, 0x1f, 0x27, 0x25, 0x39, 0x3a, 0x29, 0x3b, 0x19, 0x1f, 0x28, 0x1c, 0x13, 0x10, 0xe9, 0xe6, 0xea, 0xf9, 0xfc, 0x00, 0x00, 0xf5, 0x0b, 0x0c, 0xfd, 0xf4, 0xf9, 0xfc, 0x0a, 0x07, 0xf5, 0x0a, 0xfe, 0x01, 0xfc, 0xf0, 0x00, 0xf4, 0xf3, 0xf9, 0xf4, 0x05, 0x06, 0x0c, 0x08, 0xf5, 0x07, 0x0c, 0xf9, 0x08, 0x0c, 0x07, 0x01, 0xfd, 0x03, 0xfd, 0xe8, 0xf8, 0x0a, 0x0f, 0x0d, 0x1d, 0x0c, 0xfa, 0xf5, 0xdd, 0xdb, 0xfe, 0x18, 0xfa, 0xfa, 0xf5, 0xee, 0xd4, 0xf9, 0x0e, 0x0c, 0x04, 0xf1, 0xf9, 0xf6, 0x08, 0xfd, 0x0f, 0xfc, 0x0e, 0x13, 0xf9, 0x09, 0x0b, 0xf9, 0xf4, 0x00, 0xef, 0xda, 0x0d, 0x10, 0x27, 0x28, 0x0f, 0x0e, 0xf6, 0xdf, 0xf3, 0xfd, 0xf2, 0xf3, 0xf3, 0xe0, 0xfb, 0x26, 0x13, 0x20, 0x07, 0x03, 0xec, 0xf9, 0x0c, 0xf8, 0xf6, 0x0d, 0xf9, 0xff, 0x11, 0x26, 0x39, 0x2b, 0x32, 0x3b, 0x3f, 0x19, 0x0f, 0x27, 0x0b, 0x06, 0xff, 0xe3, 0x02, 0x2e, 0x0c, 0xfd, 0x1f, 0xfe, 0x07, 0x02, 0x04, 0x04, 0xf4, 0xf9, 0xfd, 0x05, 0x16, 0x17, 0x1b, 0x20, 0x1c, 0x25, 0x44, 0x46, 0x1b, 0xe8, 0x00, 0xf5, 0x0e, 0xec, 0xfb, 0x06, 0x0d, 0x03, 0x1b, 0x17, 0x20, 0x19, 0x01, 0x07, 0xf1, 0xfc, 0xfd, 0xf2, 0xfe, 0xfc, 0x01, 0xfd, 0xfc, 0xf9, 0x0e, 0x1a, 0x1f, 0x21, 0x23, 0xfb, 0xfe, 0x0e, 0xf4, 0x15, 0x13, 0x21, 0x21, 0x12, 0x26, 0x0d, 0x1a, 0x0b, 0x0b, 0x10, 0xfb, 0x0a, 0x0c, 0x00, 0x08, 0x00, 0xf4, 0x02, 0x06, 0x2c, 0x24, 0x15, 0x19, 0x0b, 0x04, 0xe9, 0x05, 0xed, 0x0e, 0x05, 0x20, 0x17, 0x1e, 0x19, 0x08, 0x04, 0x01, 0x03, 0x1a, 0x15, 0x13, 0xfe, 0xef, 0xf3, 0xf7, 0xf2, 0x19, 0x2c, 0x32, 0x16, 0x05, 0xe7, 0xe8, 0xe4, 0xf2, 0xf9, 0x0e, 0x0b, 0x0b, 0x07, 0x0c, 0xf9, 0xfc, 0xee, 0xed, 0xff, 0xef, 0xf7, 0xea, 0xf9, 0xfe, 0xf8, 0x0a, 0xf8, 0xfe, 0x37, 0x26, 0xf8, 0xee, 0xe5, 0xf5, 0xff, 0xec, 0xe1, 0xee, 0x00, 0x03, 0x03, 0xf0, 0xe1, 0xed, 0xee, 0xe7, 0xdc, 0xd7, 0xd8, 0xeb, 0xfd, 0xf5, 0x1d, 0x11, 0xff, 0x0d, 0x3d, 0x3d, 0x09, 0x12, 0xe4, 0xe6, 0xd9, 0xe3, 0xe8, 0xd7, 0xf6, 0xf4, 0xf4, 0x0e, 0xfe, 0x04, 0xf5, 0xf9, 0xe5, 0xdf, 0xee, 0xf4, 0xfd, 0xff, 0x0d, 0x16, 0xf7, 0xf5, 0x36, 0x3f, 0x06, 0xf5, 0xec, 0xd3, 0xc5, 0xe4, 0xe8, 0xf4, 0x04, 0x17, 0x2a, 0x22, 0x23, 0x23, 0x22, 0x08, 0xec, 0xfc, 0x1a, 0x27, 0x1a, 0x15, 0x0d, 0x03, 0xf2, 0xe9, 0x0a, 0x0d, 0xfb, 0x05, 0x04, 0xde, 0xda, 0xdc, 0xf7, 0x16, 0x2a, 0x46, 0x33, 0x30, 0x2c, 0x43, 0x34, 0x1a, 0xfd, 0x17, 0x30, 0x2a, 0x23, 0x09, 0x14, 0xf7, 0xfe, 0xf2, 0xd1, 0xd7, 0xdc, 0xf1, 0xf8, 0xf6, 0xd0, 0xe8, 0x2d, 0x3d, 0x3a, 0x37, 0x28, 0x1d, 0x3f, 0x2b, 0x23, 0x10, 0x02, 0x18, 0x31, 0x3a, 0x26, 0x2a, 0x1d, 0x16, 0x0e, 0x03, 0xdf, 0xc8, 0xcb, 0xd9, 0xfd, 0x00, 0xe7, 0x0b, 0x2e, 0x2f, 0x24, 0x24, 0x31, 0x2f, 0x2d, 0x35, 0x20, 0xfc, 0xef, 0x15, 0x27, 0x2b, 0x31, 0x1a, 0x31, 0x27, 0x1d, 0x19, 0xe7, 0xd2, 0xbc, 0xd4, 0x15, 0x1b, 0x16, 0xf8, 0x0c, 0x11, 0xff, 0x15, 0x24, 0x1c, 0x37, 0x30, 0x1b, 0xfd, 0xf0, 0xfd, 0x2c, 0x2e, 0x2a, 0x29, 0x2d, 0x30, 0x37, 0x15, 0xee, 0xcd, 0xbc, 0xd8, 0xf6, 0x0f, 0xee, 0xcd, 0xec, 0xe9, 0xfa, 0x07, 0x26, 0x1a, 0x0c, 0x13, 0x08, 0xf8, 0xf3, 0xfb, 0x0d, 0x30, 0x21, 0x2b, 0x27, 0x09, 0x1b, 0x01, 0xea, 0xb0, 0xae, 0xd0, 0x05, 0x10, 0xfc, 0xdd, 0xe1, 0xeb, 0xe0, 0x02, 0x12, 0x01, 0x02, 0x12, 0xf3, 0xec, 0xea, 0xf3, 0x1b, 0x21, 0x1e, 0x1f, 0x1f, 0x1c, 0x06, 0x16, 0xd8, 0xc3, 0xcf, 0xdb, 0xea, 0x07, 0xf8, 0xe7, 0xec, 0xdf, 0xef, 0xf0, 0xfc, 0xf7, 0xf8, 0x05, 0xee, 0xe3, 0xed, 0x0b, 0x18, 0x14, 0x12, 0x1b, 0x12, 0x16, 0xf1, 0xe3, 0xc9, 0xc0, 0xd9, 0xea, 0xf8, 0xfc, 0x0f, 0x25, 0xf6, 0xfd, 0xfd, 0xea, 0xf0, 0xeb, 0xeb, 0xf5, 0xed, 0xe6, 0x01, 0xfb, 0x0f, 0x17, 0x1e, 0x09, 0x07, 0x00, 0xe0, 0xe9, 0xe1, 0xbe, 0xdb, 0xf3, 0xf7, 0x0e, 0x0a, 0x04, 0xfb, 0xf8, 0xde, 0xd4, 0xea, 0xf0, 0xe8, 0xf1, 0x06, 0xfb, 0x19, 0x17, 0x10, 0x0f, 0xff, 0xf9, 0xf8, 0xed, 0xe0, 0xda, 0xc8, 0xda, 0xe0, 0xfd, 0xea, 0x08, 0x00, 0xf4, 0x02, 0xdd, 0xd5, 0xea, 0xed, 0xee, 0xf6, 0x05, 0x04, 0x1a, 0x1a, 0x12, 0x21, 0x07, 0x08, 0xf3, 0xf0, 0xfc, 0xe4, 0xcf, 0xd9, 0xd7, 0xf8, 0x10, 0xf1, 0x0c, 0xff, 0xee, 0xe9, 0xd6, 0xd1, 0xe6, 0xf1, 0xeb, 0xf6, 0x03, 0x16, 0x2c, 0x11, 0x20, 0x0d, 0xf9, 0xfa, 0xef, 0xe7, 0xd9, 0xe2, 0xec, 0xea, 0xe5, 0x19, 0x06, 0x02, 0x0a, 0xfe, 0x40, 0xfa, 0xf0, 0xfa, 0x06, 0x05, 0x01, 0x10, 0x16, 0x09, 0x0e, 0x12, 0x04, 0x02, 0xf8, 0xe5, 0xd5, 0xea, 0xe1, 0xdc, 0xdd, 0xde, 0xfe, 0x03, 0xfd, 0x01, 0x08, 0x0c, 0x44, 0x3d, 0x28, 0x26, 0x37, 0x27, 0x1e, 0x23, 0x24, 0x0e, 0x21, 0x05, 0x06, 0x0a, 0x01, 0xfb, 0xf3, 0x0a, 0xeb, 0xfc, 0x0c, 0xd0, 0xcd, 0xda, 0x0b, 0x07, 0x09, 0x0a, 0x2a, 0x41, 0x4b, 0x33, 0x3a, 0x3e, 0x41, 0x43, 0x35, 0x26, 0x2b, 0x17, 0x13, 0x1c, 0x18, 0x21, 0x2f, 0x3c, 0x40, 0x3a, 0x40, 0x00, 0xef, 0xf4, 0x0b, 0xf5, 0xf3, 0x0e, 0x0c, 0x21, 0x1f, 0x1e, 0x08, 0xf1, 0xfc, 0x00, 0x01, 0x18, 0x11, 0x26, 0x09, 0xff, 0x02, 0xf8, 0x01, 0x2d, 0x1a, 0x06, 0x1f, 0xea, 0xf4, 0x03, 0xfe, 0x04, 0x08, 0x05, 0x07, 0xf2, 0xff, 0xfd, 0xf4, 0xd4, 0xd8, 0xde, 0xef, 0xf8, 0xc4, 0xcc, 0xd5, 0xc4, 0xb8, 0xe5, 0xe6, 0x07, 0xf2, 0xe3, 0xdf, 0x06, 0x0c, 0xff, 0xf4, 0xf4, 0xf3, 0x02, 0x0c, 0x02, 0x00, 0xf9, 0x03, 0xf8, 0xf7, 0x07, 0xf9, 0x0e, 0x17, 0x0e, 0xf5, 0xf4, 0x0b, 0xf6, 0xf3, 0xfc, 0xf2, 0xfb, 0x0c, 0xf2, 0x0f, 0x05, 0x01, 0x07, 0xfe, 0x0a, 0xf8, 0x0e, 0x14, 0x2c, 0x1e, 0x1c, 0x23, 0x2c, 0x44, 0x51, 0x30, 0x08, 0x45, 0x27, 0x37, 0x30, 0x19, 0x28, 0x16, 0x32, 0x16, 0x09, 0x07, 0xfe, 0xff, 0xf4, 0x09, 0x02, 0x0a, 0x0d, 0x1f, 0x27, 0x33, 0x2f, 0x2f, 0x62, 0x4b, 0x61, 0x46, 0x49, 0x4b, 0x48, 0x1a, 0x2a, 0x21, 0x23, 0x2a, 0x30, 0x2f, 0x01, 0x01, 0xfb, 0x0d, 0xf7, 0xf4, 0x03, 0x2b, 0x1d, 0x1d, 0x4a, 0x2f, 0x45, 0x44, 0x58, 0x4a, 0x5c, 0x57, 0x48, 0x55, 0x2f, 0x26, 0x20, 0x1b, 0x07, 0xff, 0x00, 0x15, 0x1b, 0xed, 0xeb, 0x08, 0x08, 0x03, 0x24, 0x1a, 0x15, 0x33, 0x39, 0x26, 0x55, 0x3a, 0x4e, 0x2a, 0x35, 0x40, 0x4a, 0x2f, 0x2e, 0x1d, 0x22, 0x0f, 0x10, 0xfa, 0xe0, 0xde, 0xb9, 0x01, 0x18, 0x19, 0xf6, 0x04, 0x08, 0x1b, 0x29, 0x1c, 0x26, 0x23, 0x25, 0x13, 0x1b, 0x0a, 0x0b, 0x10, 0x1a, 0x27, 0x14, 0x0a, 0x08, 0x12, 0x00, 0x05, 0xf9, 0xd8, 0xe8, 0x01, 0x18, 0xfb, 0x03, 0x07, 0xe9, 0x06, 0x16, 0xf9, 0x11, 0x06, 0x06, 0x0f, 0x0e, 0x1a, 0x13, 0x06, 0x06, 0x0e, 0x18, 0x0d, 0x0a, 0x08, 0x04, 0xfa, 0xec, 0xe6, 0xf2, 0x13, 0xff, 0xf7, 0x08, 0x2c, 0x01, 0xfa, 0x19, 0xfb, 0xfd, 0x0d, 0x01, 0xff, 0xf8, 0xf0, 0x08, 0x09, 0x03, 0x13, 0x06, 0xfd, 0xf1, 0xfc, 0x05, 0xf3, 0x08, 0xed, 0xef, 0x02, 0x02, 0x00, 0xee, 0x16, 0xea, 0x1a, 0x34, 0xff, 0x0e, 0x00, 0xf3, 0xf8, 0x00, 0xe5, 0x04, 0x03, 0x0a, 0x05, 0xf9, 0xfe, 0xf7, 0xfa, 0xed, 0xea, 0xf9, 0xe4, 0xe9, 0xf2, 0x1b, 0x1b, 0xf9, 0xef, 0xfd, 0x22, 0x3b, 0x0e, 0x06, 0x11, 0xf6, 0xe7, 0xea, 0xe0, 0xdd, 0xec, 0x07, 0x09, 0xe1, 0xf3, 0xe0, 0xee, 0x04, 0x05, 0xf9, 0xe8, 0xcc, 0xf0, 0x21, 0xee, 0x09, 0xfb, 0xfa, 0x10, 0x23, 0xff, 0x08, 0x01, 0xeb, 0xe8, 0xdb, 0xd8, 0xde, 0xf4, 0x0d, 0xfe, 0xe8, 0xe7, 0x07, 0xf9, 0xf7, 0xf9, 0x0b, 0x08, 0xda, 0xd1, 0xf9, 0x04, 0xf4, 0x1d, 0x06, 0x1e, 0x02, 0xf7, 0xf6, 0xf7, 0xe1, 0xe8, 0xe2, 0xdf, 0xf0, 0x16, 0x21, 0x06, 0xf2, 0xf4, 0xfe, 0x12, 0x25, 0x12, 0x25, 0x30, 0x2c, 0x05, 0x09, 0x09, 0x05, 0xed, 0xdf, 0x0a, 0x01, 0xee, 0xde, 0xe5, 0xe5, 0xf8, 0xd7, 0xdf, 0xe7, 0x26, 0x39, 0x15, 0x04, 0x0a, 0x13, 0xfc, 0x16, 0x17, 0x11, 0x3d, 0x3d, 0x1a, 0x18, 0x0e, 0x0e, 0xf6, 0xdf, 0x02, 0xd8, 0xcb, 0xe2, 0xdc, 0xe7, 0xed, 0xe7, 0xe9, 0x07, 0x36, 0x35, 0x1f, 0x22, 0xfc, 0x00, 0x06, 0xfe, 0xed, 0x02, 0x23, 0x3b, 0x22, 0x1e, 0x2a, 0xf9, 0xf9, 0xe1, 0xec, 0xb5, 0xd1, 0xd9, 0xd7, 0xf6, 0xeb, 0xf4, 0xfb, 0x11, 0x36, 0x2c, 0x27, 0x05, 0xee, 0xfd, 0xf7, 0xf1, 0x0b, 0xf7, 0x0f, 0x25, 0x27, 0x3e, 0x1a, 0xea, 0xff, 0xe7, 0x14, 0xea, 0xe2, 0x04, 0xf4, 0xfe, 0xee, 0xf6, 0x19, 0x21, 0x27, 0x41, 0x24, 0xf3, 0xf6, 0xf1, 0x07, 0x0d, 0x09, 0x11, 0x06, 0x0f, 0x2c, 0xfa, 0x17, 0x00, 0x12, 0x29, 0x38, 0x17, 0x0f, 0xfa, 0xf1, 0xfa, 0x05, 0x22, 0x17, 0x1b, 0x36, 0x24, 0xf5, 0xe2, 0xec, 0xfb, 0xf8, 0xea, 0xff, 0xfe, 0x16, 0x2b, 0x20, 0x0e, 0x1a, 0x01, 0x19, 0xfe, 0x2b, 0x1f, 0xe8, 0xed, 0x07, 0x10, 0x11, 0x29, 0x28, 0x24, 0x20, 0xfc, 0xd7, 0xe5, 0xf5, 0xf8, 0x17, 0x04, 0x0c, 0x0d, 0x12, 0x07, 0x07, 0x05, 0x0c, 0xf1, 0x18, 0x04, 0x30, 0x03, 0x00, 0xea, 0xf4, 0x0c, 0x13, 0x1e, 0x16, 0x0a, 0xff, 0xec, 0xdf, 0x01, 0x0d, 0x16, 0x13, 0x07, 0x09, 0x11, 0x22, 0x0b, 0x2f, 0xff, 0x0a, 0xf9, 0xec, 0xea, 0x15, 0xfa, 0xf4, 0xe5, 0x00, 0x0e, 0x15, 0x12, 0x16, 0x0f, 0xfe, 0x0d, 0x05, 0x27, 0x24, 0x2c, 0x15, 0x19, 0x10, 0x1f, 0x25, 0x0e, 0x1a, 0x14, 0x22, 0x05, 0x03, 0xe9, 0x14, 0x04, 0x05, 0x15, 0x24, 0x18, 0x22, 0x10, 0x14, 0x0d, 0x0f, 0x1b, 0x20, 0x21, 0x17, 0x28, 0x2a, 0x29, 0x1b, 0x14, 0x0b, 0xf5, 0xff, 0x0e, 0xfc, 0x17, 0x0a, 0x1f, 0x27, 0x10, 0x0b, 0x1d, 0x29, 0x0f, 0x0a, 0x15, 0x0f, 0x16, 0x2e, 0x33, 0x1a, 0x25, 0x1a, 0x1a, 0x11, 0x07, 0xee, 0xf0, 0xf3, 0xe2, 0x07, 0xdd, 0x07, 0x1a, 0xfe, 0x27, 0x16, 0x1c, 0x25, 0x31, 0x26, 0x08, 0x03, 0x11, 0x14, 0x08, 0x14, 0x1c, 0x0f, 0x0a, 0x0d, 0x0e, 0x00, 0xfe, 0xf3, 0xed, 0xd4, 0xd8, 0xee, 0xfb, 0xef, 0x0e, 0x0c, 0x2d, 0x11, 0x0d, 0x08, 0x14, 0x10, 0x09, 0x1c, 0x00, 0xfd, 0x18, 0x0f, 0x0e, 0x18, 0xfd, 0x05, 0x0c, 0x00, 0xf5, 0xee, 0xdd, 0xf5, 0xe5, 0xf3, 0x0c, 0x01, 0xfb, 0x03, 0x0b, 0x11, 0xf4, 0xef, 0xf8, 0xf4, 0x0a, 0x15, 0xfe, 0x11, 0x14, 0x11, 0x0b, 0x0b, 0x12, 0x08, 0xfc, 0x03, 0xff, 0xee, 0xeb, 0xe3, 0x03, 0x13, 0x10, 0xf3, 0xfb, 0x05, 0x00, 0xdc, 0xd1, 0xce, 0xfb, 0xed, 0x0a, 0xf7, 0xfc, 0x0c, 0x03, 0x01, 0x00, 0xed, 0xfe, 0x06, 0x0a, 0x09, 0xfe, 0xca, 0xda, 0xd3, 0xee, 0xf5, 0x0e, 0xf6, 0x0e, 0xfd, 0xfb, 0xee, 0xee, 0xd7, 0xd4, 0xf8, 0xdf, 0xe5, 0xd9, 0xd9, 0xb6, 0xc9, 0xbf, 0xcf, 0xdf, 0xec, 0xff, 0xff, 0xe5, 0xc5, 0xe9, 0x01, 0x0a, 0xfa, 0xf1, 0xf9, 0xfd, 0xf3, 0xf9, 0x00, 0xf5, 0x10, 0x09, 0x05, 0x04, 0x07, 0xeb, 0x03, 0xe2, 0xf3, 0x04, 0x1a, 0x08, 0x05, 0xde, 0x04, 0xf9, 0xee, 0xe6, 0x03, 0x02, 0x0c, 0x0c, 0x0e, 0xf3, 0xfe, 0xfe, 0xf2, 0x01, 0xf9, 0x0d, 0xfc, 0x02, 0x03, 0x09, 0xf4, 0xf0, 0x02, 0x13, 0xfb, 0xf1, 0xf8, 0xf5, 0x06, 0x02, 0x01, 0xfd, 0xf7, 0x0c, 0xfe, 0xfb, 0x0e, 0xfb, 0x01, 0x02, 0xf8, 0xfa, 0xf7, 0xd8, 0xe1, 0xd6, 0xe3, 0xd9, 0xc9, 0xbd, 0xb9, 0x0c, 0xf8, 0xf1, 0xc9, 0xc9, 0xcf, 0xe0, 0xe1, 0xea, 0xe0, 0xfd, 0xfb, 0x03, 0x03, 0xfa, 0x0e, 0x09, 0xe4, 0xe8, 0xd6, 0xd9, 0xc6, 0xb0, 0xc5, 0xb6, 0xa8, 0xbd, 0xd4, 0xd0, 0xf0, 0xde, 0xbc, 0xc4, 0xbf, 0xbb, 0xb7, 0xd4, 0xd6, 0xf3, 0xf4, 0xf3, 0xf3, 0xfb, 0x02, 0x13, 0xe1, 0xce, 0xff, 0xd4, 0xbe, 0xaa, 0xaf, 0xab, 0xab, 0xcc, 0xd2, 0xc8, 0xcc, 0xed, 0xe4, 0xc4, 0xcf, 0xd4, 0xbf, 0xdc, 0xe3, 0xe0, 0xfa, 0xe0, 0x07, 0xf8, 0xfd, 0x1d, 0x1a, 0x17, 0x1a, 0xfe, 0xee, 0xf6, 0xfb, 0xf1, 0x0a, 0x04, 0x12, 0xf3, 0xf0, 0xe9, 0xe7, 0xf2, 0xf5, 0xfa, 0xf4, 0xf0, 0xd7, 0xe4, 0xe9, 0x00, 0xf5, 0xfc, 0x05, 0x1e, 0x28, 0x29, 0x29, 0x1b, 0x1a, 0x05, 0x09, 0x09, 0x05, 0x09, 0x10, 0x0c, 0x0c, 0xf2, 0xe1, 0xe3, 0xf2, 0xd9, 0xe7, 0xdf, 0xea, 0xec, 0xf4, 0xf5, 0x04, 0x0d, 0xfd, 0x07, 0x40, 0x2c, 0x34, 0x2c, 0x19, 0x1e, 0x0f, 0x24, 0x1f, 0x24, 0x15, 0x17, 0x22, 0x2b, 0x16, 0x0e, 0xff, 0xfe, 0xf4, 0xdd, 0xda, 0xd9, 0xf2, 0x00, 0xf6, 0x0a, 0x01, 0x2c, 0x5d, 0x3d, 0x33, 0x22, 0x25, 0x1f, 0x2c, 0x1b, 0x22, 0x17, 0x24, 0x0e, 0x1e, 0x19, 0x17, 0x19, 0x0d, 0x14, 0xf8, 0xfc, 0xda, 0xc9, 0xd8, 0x19, 0xef, 0xe1, 0x13, 0x21, 0x33, 0x49, 0x1f, 0x2d, 0x1c, 0x1c, 0x20, 0x1d, 0x05, 0x19, 0x1a, 0x18, 0x1a, 0x16, 0x25, 0x1a, 0x18, 0x0c, 0x0a, 0x04, 0xc8, 0xb5, 0xe6, 0xfe, 0xf3, 0x10, 0x36, 0x21, 0x36, 0x42, 0x3d, 0x20, 0x26, 0x0c, 0x0a, 0x0c, 0xff, 0x13, 0x09, 0x28, 0x32, 0x28, 0x2e, 0x23, 0x26, 0x15, 0x08, 0x02, 0xd1, 0x9f, 0xc0, 0xf5, 0x06, 0x1c, 0x1a, 0x2d, 0x40, 0x28, 0x15, 0x13, 0x06, 0xf9, 0x0c, 0xf4, 0xff, 0xdf, 0x09, 0x0d, 0x25, 0x30, 0x2e, 0x30, 0x34, 0x2b, 0x29, 0x1d, 0xc1, 0x91, 0x98, 0xd4, 0x13, 0x1a, 0x26, 0x3e, 0x36, 0x2d, 0x20, 0xf8, 0x0a, 0xfe, 0xfe, 0xff, 0xf5, 0xda, 0xe0, 0x0e, 0x36, 0x2c, 0x47, 0x3e, 0x34, 0x47, 0x34, 0x3f, 0xca, 0x8e, 0xb0, 0xe3, 0x0c, 0x12, 0x26, 0x43, 0x35, 0x2b, 0xff, 0xeb, 0x00, 0x05, 0x0a, 0xfb, 0xf9, 0xe1, 0xc1, 0x1b, 0x27, 0x36, 0x2f, 0x2e, 0x2c, 0x34, 0x3b, 0x33, 0xf2, 0xc2, 0xff, 0x06, 0x26, 0x10, 0x14, 0x45, 0x20, 0x13, 0x04, 0x03, 0xf0, 0x04, 0x05, 0xed, 0xe1, 0xc7, 0xea, 0x17, 0x3c, 0x3d, 0x3a, 0x23, 0x20, 0x24, 0x17, 0xef, 0xcf, 0xd0, 0x20, 0x31, 0x1a, 0xf6, 0x1c, 0x2f, 0x19, 0x20, 0xfb, 0xfd, 0xfa, 0xf8, 0xec, 0xe5, 0xf1, 0xda, 0xff, 0x27, 0x2b, 0x2a, 0x46, 0x41, 0x2f, 0x13, 0xfe, 0xe9, 0xd4, 0xca, 0x2c, 0x3d, 0x31, 0xe1, 0xf9, 0x0e, 0x08, 0x1c, 0xf8, 0xf4, 0xf5, 0xf0, 0xe4, 0xdf, 0xe7, 0xee, 0x01, 0x20, 0x2e, 0x2b, 0x40, 0x2b, 0x21, 0x17, 0x12, 0x15, 0xf4, 0xe1, 0xf4, 0x27, 0x29, 0x09, 0xf8, 0x10, 0x07, 0x12, 0xf2, 0xf4, 0x0f, 0x0d, 0xf1, 0x05, 0xf6, 0xff, 0x21, 0x19, 0x29, 0x2b, 0x2e, 0x23, 0x0c, 0x01, 0x03, 0xfe, 0xf5, 0xda, 0xda, 0x21, 0x26, 0xf7, 0x18, 0x01, 0x06, 0x08, 0xed, 0xe3, 0xfb, 0x08, 0x04, 0x08, 0x00, 0x10, 0x37, 0x23, 0x12, 0x1e, 0x11, 0x02, 0xfe, 0xf5, 0xf7, 0xf8, 0xfb, 0xf4, 0x12, 0x37, 0xfe, 0x28, 0x10, 0x23, 0x06, 0x09, 0xec, 0xcf, 0xed, 0xef, 0xf3, 0xef, 0xf8, 0xf3, 0x08, 0x11, 0x07, 0xf9, 0xf8, 0x00, 0x03, 0x01, 0x04, 0xf9, 0xdf, 0xca, 0xfe, 0x15, 0x01, 0x0c, 0x0e, 0xfc, 0x10, 0xee, 0xde, 0xed, 0xe8, 0xda, 0xf0, 0xe6, 0xcf, 0xe7, 0xf6, 0xea, 0xef, 0xe9, 0xee, 0xf5, 0xfa, 0xf2, 0xfc, 0xd1, 0xdc, 0xe6, 0x03, 0x19, 0x16, 0xfb, 0xf3, 0xf2, 0x05, 0xfc, 0xdf, 0xe5, 0xf4, 0xf4, 0xdd, 0xe0, 0xe7, 0xde, 0xf6, 0xfb, 0xe9, 0xf6, 0xf3, 0xeb, 0xef, 0xf5, 0xf2, 0xe1, 0xe0, 0xeb, 0x04, 0x16, 0xf2, 0xfc, 0x11, 0xff, 0xe4, 0xfc, 0xe9, 0xe7, 0xef, 0xf6, 0xf5, 0xf6, 0xed, 0xe6, 0xe8, 0xf7, 0xef, 0xf7, 0xea, 0xe8, 0xf7, 0xe8, 0xea, 0xd1, 0xd3, 0xf5, 0xfc, 0xe5, 0x0b, 0x0d, 0x0a, 0x05, 0xf4, 0xde, 0x0d, 0x0a, 0x0b, 0xf7, 0xf5, 0x03, 0xf8, 0xe9, 0xf1, 0x07, 0x02, 0xfb, 0xfd, 0xf7, 0xf5, 0xea, 0xde, 0xef, 0xe5, 0xfe, 0x02, 0xe0, 0xfa, 0xfd, 0x02, 0xe5, 0xe8, 0xff, 0xf8, 0x16, 0x0a, 0x00, 0xfa, 0x09, 0xfe, 0x00, 0x03, 0x00, 0xfd, 0xf9, 0x08, 0x00, 0xf2, 0xde, 0xed, 0xfe, 0xeb, 0x03, 0x05, 0xf6, 0x05, 0xf9, 0x03, 0xf6, 0xdf, 0x1b, 0x27, 0x24, 0x28, 0x10, 0x0b, 0x0f, 0x10, 0x0b, 0x03, 0x03, 0x15, 0x0d, 0xfa, 0xf4, 0xf1, 0x03, 0x0b, 0xf7, 0xfa, 0xfc, 0xea, 0x15, 0x08, 0x0f, 0x03, 0xed, 0xf1, 0x0f, 0x2e, 0x26, 0x32, 0x3c, 0x35, 0x32, 0x36, 0x23, 0x1a, 0x29, 0x19, 0x0f, 0x11, 0x0a, 0x05, 0x11, 0x06, 0xe7, 0xf7, 0xe5, 0xfc, 0x01, 0x04, 0x00, 0x04, 0xf3, 0x0a, 0x01, 0x08, 0x38, 0x51, 0x50, 0x3f, 0x39, 0x1d, 0x26, 0x26, 0x38, 0x31, 0x32, 0x2e, 0x41, 0x22, 0x08, 0x10, 0x0f, 0xf9, 0x15, 0x06, 0xff, 0xf4, 0xf8, 0x03, 0xf3, 0x07, 0x0f, 0x0a, 0x12, 0x20, 0x2e, 0x1b, 0x22, 0x10, 0x22, 0x45, 0x39, 0x29, 0x3f, 0x3a, 0x3c, 0x34, 0x1c, 0x22, 0x25, 0x27, 0xf3, 0x0e, 0xfe, 0xfd, 0x09, 0xf2, 0x0d, 0x09, 0xf8, 0x09, 0x09, 0xf7, 0x04, 0x09, 0xf4, 0x04, 0xf8, 0x04, 0x05, 0x04, 0x06, 0x04, 0x06, 0xf8, 0xf8, 0xf1, 0x02, 0x08, 0x0c, 0xf6, 0xf3, 0x0e, 0xf2, 0x04, 0xf7, 0xf8, 0x0a, 0x03, 0x26, 0x1c, 0x13, 0x0a, 0x21, 0x12, 0x09, 0x19, 0x13, 0x0f, 0xef, 0xef, 0x28, 0x24, 0x1e, 0x1c, 0x28, 0x1f, 0xfe, 0x09, 0xfa, 0xfe, 0x03, 0xf7, 0xfb, 0xf1, 0x07, 0x05, 0x20, 0x25, 0x27, 0x2e, 0x29, 0x32, 0x37, 0x32, 0x32, 0x2e, 0x1b, 0x2a, 0x20, 0x3b, 0x28, 0x33, 0x34, 0x14, 0xf6, 0xe2, 0xf2, 0xf7, 0x04, 0x0a, 0x14, 0x07, 0x00, 0xfb, 0x27, 0x32, 0x18, 0x28, 0x1b, 0x0c, 0x0e, 0x01, 0x1d, 0x0d, 0x0e, 0x06, 0x2f, 0x19, 0x1e, 0x27, 0x23, 0x28, 0x1f, 0xe7, 0x0d, 0xf4, 0xf3, 0x08, 0x0f, 0xeb, 0xff, 0x03, 0x13, 0x12, 0x0f, 0x0e, 0x0d, 0xf6, 0xf8, 0xf7, 0x09, 0xf8, 0x0a, 0x0b, 0x0c, 0x16, 0x25, 0x1e, 0x2c, 0x39, 0x16, 0xf2, 0x17, 0x23, 0xf8, 0x0f, 0x15, 0xd5, 0xf8, 0x02, 0xe1, 0x02, 0xfe, 0x03, 0x0b, 0x07, 0x15, 0x0c, 0xf3, 0xfe, 0xdb, 0xe4, 0xe7, 0xf8, 0x0c, 0x12, 0x19, 0x43, 0x33, 0x22, 0x21, 0x16, 0xf9, 0xe9, 0xdd, 0xc9, 0xe2, 0xca, 0xdc, 0xf2, 0xee, 0xfb, 0x0c, 0x1e, 0x1d, 0x19, 0x1c, 0x24, 0x14, 0x15, 0x08, 0x03, 0x04, 0xe9, 0xe6, 0x0c, 0x3d, 0x29, 0x31, 0x1d, 0xfd, 0xd2, 0xd8, 0xbd, 0xb3, 0xba, 0xd2, 0xdf, 0xf5, 0xf7, 0x08, 0x14, 0x28, 0x26, 0x40, 0x29, 0x2f, 0x14, 0x05, 0x08, 0x05, 0x03, 0xfb, 0xf3, 0x20, 0x17, 0x22, 0x1d, 0xd8, 0xe2, 0xdb, 0xcb, 0xbb, 0xd3, 0xe6, 0xf9, 0xfc, 0x09, 0x02, 0x0c, 0x0a, 0x13, 0x13, 0x0e, 0xff, 0xfd, 0xf9, 0xf6, 0xef, 0xf9, 0xe5, 0xde, 0xfa, 0x14, 0x20, 0x1b, 0xfb, 0xef, 0xd2, 0xd0, 0xc2, 0xeb, 0xfc, 0x0b, 0x0f, 0x0a, 0x14, 0x0f, 0x11, 0xf5, 0x06, 0xe9, 0xca, 0xde, 0xe1, 0xdd, 0xe8, 0xf8, 0xf8, 0xdf, 0x02, 0x22, 0x08, 0xe4, 0xf2, 0xe0, 0xbf, 0xb3, 0xd1, 0xf9, 0x0d, 0x0b, 0x12, 0x06, 0x19, 0x10, 0x02, 0xfe, 0xf9, 0xd0, 0xbf, 0xd4, 0xe9, 0xec, 0xe8, 0xe0, 0xef, 0x00, 0x00, 0x0f, 0x0b, 0xe2, 0xf4, 0xd8, 0xab, 0xc2, 0xe6, 0x21, 0x18, 0x11, 0x09, 0x11, 0x0c, 0x06, 0x00, 0xfb, 0x0c, 0xf5, 0xd3, 0xe6, 0xf4, 0xf0, 0xf8, 0x03, 0xf5, 0x11, 0x0c, 0xf7, 0xe3, 0x06, 0xfb, 0xd8, 0xaa, 0xd4, 0x02, 0x19, 0x1a, 0x00, 0x06, 0x01, 0x04, 0xf7, 0xfa, 0x16, 0x34, 0x1f, 0x02, 0x06, 0x11, 0x17, 0x05, 0x13, 0x08, 0x15, 0xfe, 0xf5, 0xbb, 0xf2, 0x17, 0xd1, 0xbd, 0xf4, 0xff, 0x0d, 0x0d, 0x04, 0x0b, 0x08, 0xf1, 0xf0, 0x01, 0x3f, 0x45, 0x33, 0x14, 0x22, 0x25, 0x26, 0x16, 0x16, 0x04, 0x09, 0xe8, 0xd0, 0xb2, 0xf5, 0xe4, 0xe2, 0xdb, 0x01, 0x0d, 0xff, 0x08, 0xef, 0xfe, 0x10, 0x09, 0xfc, 0x10, 0x3a, 0x4e, 0x2c, 0x1a, 0x19, 0xff, 0xfe, 0xf9, 0xf7, 0xea, 0xe2, 0xde, 0xf2, 0xb9, 0xf5, 0xf5, 0x06, 0xce, 0xfe, 0xfb, 0xfb, 0xfb, 0xfc, 0x04, 0xf2, 0xff, 0x14, 0x22, 0x43, 0x38, 0x15, 0x1e, 0x14, 0x04, 0xf0, 0xe0, 0xea, 0xec, 0xe9, 0xe0, 0xf8, 0xd2, 0xde, 0xe7, 0xf4, 0xeb, 0x0d, 0xf1, 0xf6, 0xf9, 0xf2, 0xf3, 0x00, 0x0c, 0x17, 0x18, 0x23, 0x2d, 0x0c, 0x00, 0x02, 0xf2, 0xf3, 0xee, 0xec, 0xdc, 0xf1, 0xf9, 0xf4, 0xce, 0xde, 0xfd, 0x0c, 0xfa, 0xfc, 0xd5, 0xf0, 0x05, 0x04, 0x03, 0x06, 0x0f, 0x19, 0x22, 0x19, 0x17, 0x02, 0x0e, 0xfd, 0xf7, 0xf9, 0x01, 0xf3, 0xf6, 0xfe, 0xee, 0xe2, 0xd3, 0xcf, 0x09, 0xf3, 0xf8, 0xeb, 0xe0, 0xe5, 0x01, 0xf5, 0xfc, 0x00, 0x1d, 0x14, 0x12, 0x17, 0x15, 0x0f, 0x0b, 0x15, 0x18, 0x06, 0x03, 0xfc, 0xfa, 0x05, 0xed, 0xeb, 0xe6, 0xd8, 0x01, 0xd8, 0x00, 0xfb, 0xd7, 0xdf, 0xe5, 0xf7, 0xed, 0x01, 0x0a, 0x12, 0x1c, 0x07, 0x0f, 0x20, 0x08, 0x09, 0x0a, 0x1b, 0x1a, 0x07, 0x06, 0x19, 0xfb, 0xe8, 0xde, 0x08, 0xf3, 0xe9, 0xec, 0xfe, 0xd3, 0xce, 0xf0, 0x01, 0xf9, 0x0a, 0x14, 0x05, 0x01, 0x08, 0x07, 0x11, 0x1d, 0x1e, 0x0e, 0x1a, 0x17, 0x10, 0x06, 0x12, 0x0c, 0x09, 0xfb, 0x17, 0x14, 0x01, 0xf0, 0x03, 0x00, 0x00, 0xf3, 0xfa, 0x1c, 0x08, 0x0c, 0x00, 0x05, 0x1c, 0x11, 0x0e, 0x1a, 0x12, 0x1e, 0x1e, 0x23, 0x1e, 0x09, 0x0b, 0x17, 0xfb, 0xce, 0xf3, 0x01, 0x18, 0x07, 0x0b, 0x31, 0x05, 0xf1, 0xe3, 0xfa, 0x03, 0xf8, 0xe9, 0xec, 0xeb, 0x00, 0x01, 0xf8, 0x16, 0x19, 0x06, 0x11, 0x16, 0x0b, 0x1c, 0x24, 0x07, 0x12, 0xf8, 0x05, 0x08, 0xf2, 0x12, 0x13, 0x31, 0x0a, 0xf4, 0xfd, 0xec, 0xf0, 0xe9, 0xf2, 0xef, 0xf4, 0xea, 0x08, 0xff, 0xfe, 0x11, 0x2e, 0x2b, 0x37, 0x25, 0x12, 0xee, 0x1d, 0x08, 0xfc, 0xf8, 0x04, 0xd0, 0xda, 0x0a, 0xff, 0x13, 0x15, 0x10, 0x07, 0xfb, 0x02, 0xf2, 0xef, 0xf3, 0xf5, 0x0f, 0x2d, 0x2d, 0x38, 0x48, 0x30, 0x54, 0x10, 0x06, 0xe1, 0x0c, 0x0e, 0x07, 0x18, 0xe4, 0xf5, 0x14, 0x06, 0x10, 0x0b, 0x11, 0x21, 0x1f, 0x23, 0x13, 0x0b, 0x0e, 0x12, 0x2b, 0x27, 0x2d, 0x49, 0x43, 0x2b, 0x3d, 0x1c, 0xf9, 0xdf, 0x0c, 0x04, 0xfd, 0x03, 0x1b, 0x2b, 0x2e, 0x2a, 0x27, 0x20, 0x1d, 0x28, 0x12, 0x28, 0x2a, 0x37, 0x21, 0x21, 0x08, 0x18, 0x03, 0x3f, 0x23, 0x00, 0x22, 0x12, 0xf1, 0x06, 0xf2, 0xf8, 0xfe, 0x0c, 0xff, 0x04, 0xeb, 0xee, 0xfd, 0xec, 0xef, 0xe8, 0xfc, 0xf8, 0xc7, 0x02, 0xe9, 0xd8, 0xc4, 0xdb, 0xef, 0x08, 0x0b, 0x06, 0xff, 0x0e, 0x0c, 0x07, 0x05, 0x09, 0x06, 0x08, 0x07, 0xfa, 0xf7, 0x02, 0xf5, 0x0f, 0xfb, 0xf7, 0x0b, 0xf7, 0xf2, 0x05, 0xfb, 0xf9, 0xf3, 0xf7, 0x0a, 0x0d, 0xf7, 0x03, 0xf5, 0xf5, 0xf6, 0xf7, 0xff, 0x0d, 0x0a, 0xf7, 0x07, 0xf6, 0xfa, 0x05, 0xf7, 0x00, 0xfa, 0xef, 0x0d, 0x11, 0x04, 0x0b, 0x03, 0x14, 0x0c, 0xc9, 0xe1, 0xf5, 0x03, 0xf5, 0xf4, 0x03, 0xff, 0x05, 0xf2, 0xf9, 0x09, 0xf3, 0x07, 0x12, 0x00, 0xed, 0xf6, 0xe2, 0xcd, 0xbc, 0xbf, 0xc0, 0xd1, 0xcd, 0xc0, 0xdf, 0xd9, 0xe9, 0xeb, 0xf6, 0xd9, 0xe1, 0xe4, 0xdc, 0xdd, 0x03, 0xf6, 0xfa, 0x00, 0xed, 0xeb, 0xf4, 0x08, 0xeb, 0xdb, 0xe4, 0xdf, 0xd3, 0xe1, 0xef, 0xf3, 0xfe, 0xf9, 0xeb, 0xee, 0xf0, 0xfe, 0x01, 0xf3, 0xfe, 0xeb, 0xed, 0x0b, 0xf2, 0x0d, 0xf9, 0xfb, 0x04, 0x17, 0xeb, 0xd8, 0xe4, 0xed, 0xf3, 0xf5, 0xf5, 0x14, 0x0a, 0x0f, 0x08, 0x1b, 0x02, 0x0e, 0x05, 0xf2, 0xe4, 0xff, 0xf2, 0xe8, 0x14, 0x1f, 0x14, 0xfd, 0x07, 0x03, 0xf8, 0x10, 0xd3, 0xde, 0xf6, 0xef, 0xf0, 0x02, 0x01, 0x0b, 0x18, 0x0c, 0x0d, 0x13, 0x19, 0x09, 0x03, 0xfc, 0x0c, 0xf4, 0xf6, 0xf9, 0x02, 0x32, 0x14, 0xeb, 0x04, 0x0e, 0x0f, 0xfa, 0xde, 0x08, 0xf9, 0xef, 0xf8, 0x03, 0x0c, 0x25, 0x20, 0x1e, 0x25, 0x24, 0x2a, 0x24, 0x17, 0x1b, 0x12, 0x19, 0x03, 0x1d, 0x1e, 0x32, 0x27, 0x0e, 0xf6, 0x1e, 0xff, 0xff, 0xfb, 0x05, 0x14, 0x06, 0x24, 0x23, 0x26, 0x1e, 0x2b, 0x1c, 0x12, 0x25, 0x17, 0x1c, 0x1e, 0x20, 0x18, 0x0c, 0x0a, 0x26, 0x46, 0x40, 0x0f, 0x08, 0x14, 0x05, 0xf3, 0x07, 0xf6, 0xff, 0x24, 0x1e, 0x2c, 0x1f, 0x27, 0x24, 0x29, 0x27, 0x0e, 0x11, 0x23, 0x1a, 0x26, 0x1e, 0x2e, 0x24, 0x2b, 0x3f, 0x5f, 0x60, 0x2a, 0x21, 0x09, 0x1f, 0x0e, 0x11, 0x0c, 0x13, 0x2a, 0x15, 0x2e, 0x31, 0x1f, 0x33, 0x25, 0x21, 0x15, 0xf1, 0x00, 0x1c, 0x12, 0x29, 0x20, 0x1d, 0x3d, 0x39, 0x69, 0x73, 0x4e, 0x22, 0x05, 0x0a, 0x1d, 0x33, 0x22, 0x1c, 0x0f, 0x24, 0x28, 0x2f, 0x24, 0x24, 0x19, 0x2a, 0x1f, 0xf9, 0x02, 0xf8, 0x15, 0x12, 0x20, 0x16, 0x1e, 0x3f, 0x75, 0x7b, 0x5b, 0x10, 0x0a, 0x13, 0x27, 0x31, 0x24, 0x1d, 0x32, 0x28, 0x1f, 0x20, 0x23, 0x13, 0x16, 0x3b, 0x31, 0xff, 0xed, 0x0e, 0x12, 0x07, 0xf7, 0x00, 0xfa, 0x0e, 0x49, 0x7f, 0x61, 0x0a, 0x0b, 0x14, 0x20, 0x2e, 0x29, 0x25, 0x1c, 0x1e, 0x03, 0x07, 0x08, 0x03, 0x00, 0x23, 0x08, 0xf7, 0xf1, 0xfd, 0x0a, 0x10, 0x0b, 0xf2, 0xcd, 0xde, 0xe7, 0x31, 0x47, 0x0a, 0x05, 0x16, 0x16, 0x33, 0x1f, 0x0e, 0xf9, 0xfa, 0xf4, 0xf1, 0xf0, 0xf2, 0xf5, 0x07, 0x00, 0xf4, 0xfb, 0xfa, 0x09, 0x09, 0x08, 0xf0, 0xe8, 0xc8, 0xe5, 0xfd, 0x1e, 0xe2, 0x22, 0xff, 0x0f, 0xf7, 0xf8, 0xe9, 0xe9, 0xde, 0xeb, 0xf3, 0xef, 0xf9, 0xf9, 0x09, 0x00, 0x03, 0x00, 0x09, 0x0a, 0xfc, 0xf6, 0xea, 0xd8, 0xef, 0xec, 0xe1, 0xda, 0xe4, 0x1a, 0x13, 0x07, 0xef, 0xf4, 0xce, 0xcd, 0xcd, 0xe9, 0xf2, 0xf0, 0xf1, 0xfe, 0x06, 0xf6, 0xf2, 0xf6, 0xf2, 0x08, 0xf5, 0xe4, 0xf4, 0xe1, 0xf9, 0xf9, 0xcf, 0xcd, 0xe3, 0xf6, 0x0e, 0xfd, 0x16, 0xff, 0xdd, 0xe2, 0xd6, 0xdb, 0xf0, 0xf0, 0xee, 0x17, 0xf2, 0xe4, 0xed, 0xf6, 0xf0, 0xfb, 0xea, 0xf0, 0xe8, 0xf6, 0x0b, 0x02, 0xa2, 0xb8, 0xe9, 0xf3, 0x16, 0xea, 0x27, 0x10, 0x01, 0xef, 0xea, 0xf0, 0xed, 0xe9, 0xec, 0xfc, 0xe9, 0xd8, 0xf6, 0x00, 0xff, 0xfa, 0xfa, 0xfc, 0xf6, 0x03, 0x12, 0x15, 0xac, 0xeb, 0x0c, 0x1b, 0x0f, 0x03, 0x13, 0x17, 0x06, 0x23, 0x06, 0xf5, 0x00, 0x0a, 0xf8, 0xe2, 0xf3, 0xeb, 0xea, 0x04, 0xf6, 0xf0, 0x01, 0xfd, 0x02, 0x06, 0x16, 0xf3, 0xb3, 0xe2, 0xea, 0xf6, 0x34, 0x07, 0x1d, 0x14, 0x23, 0x19, 0x08, 0x20, 0x13, 0x12, 0xed, 0x09, 0xec, 0xf3, 0xf6, 0xf0, 0x03, 0x0f, 0x04, 0x08, 0x00, 0x0e, 0x19, 0x0b, 0xdd, 0xcf, 0xe2, 0x01, 0x19, 0xfb, 0x0c, 0xfa, 0x15, 0x16, 0x1d, 0x15, 0x1e, 0xf9, 0x04, 0xf9, 0xfe, 0xe9, 0xf9, 0xeb, 0xfb, 0xf8, 0x07, 0x06, 0x0c, 0x25, 0x12, 0xee, 0xf6, 0xe1, 0xfc, 0xfd, 0xf8, 0x09, 0x09, 0x11, 0x08, 0x1e, 0x22, 0x12, 0x05, 0x01, 0x08, 0xfb, 0x06, 0xfd, 0xf9, 0xf1, 0xfe, 0xfa, 0xf4, 0x0a, 0x0f, 0x15, 0xfd, 0xe9, 0xff, 0xec, 0x0b, 0x02, 0xf5, 0xf0, 0x11, 0x0d, 0x03, 0x14, 0x0b, 0x03, 0x07, 0x08, 0x06, 0x16, 0x23, 0x12, 0x09, 0x0b, 0x06, 0x02, 0x0c, 0x09, 0x09, 0x01, 0x0d, 0xff, 0x06, 0x09, 0xf4, 0x09, 0xf9, 0x1b, 0x32, 0x17, 0xf3, 0xff, 0xf7, 0x08, 0x11, 0x0e, 0x22, 0x1a, 0x22, 0x23, 0x1e, 0x0f, 0x14, 0xf6, 0xfa, 0xf4, 0xfd, 0xf9, 0xf9, 0x0a, 0xf5, 0xfe, 0x0b, 0x01, 0xf5, 0x04, 0x42, 0x2b, 0xf5, 0x02, 0x0c, 0x13, 0x14, 0x24, 0x26, 0x36, 0x27, 0x37, 0x36, 0x23, 0x1b, 0x0d, 0x14, 0xf5, 0xee, 0xe7, 0xf9, 0xf8, 0xbb, 0xce, 0x09, 0x06, 0xf4, 0x09, 0x21, 0x02, 0x06, 0x17, 0x2a, 0x25, 0x35, 0x3b, 0x47, 0x3e, 0x3e, 0x30, 0x45, 0x3f, 0x3c, 0x2b, 0x36, 0x03, 0x00, 0x18, 0x21, 0x1c, 0xdd, 0xf1, 0xfc, 0xf3, 0x04, 0x0e, 0xec, 0xde, 0xe5, 0xdb, 0xf8, 0x0b, 0xfc, 0x14, 0x1d, 0x20, 0x1d, 0x18, 0x1f, 0x1d, 0x20, 0x1a, 0x18, 0x08, 0x0b, 0x1e, 0xf5, 0x1f, 0x04, 0x08, 0x0a, 0x06, 0xfa, 0xff, 0xfd, 0xfb, 0x12, 0x0f, 0x06, 0x1a, 0x23, 0x35, 0x16, 0x0a, 0x33, 0x16, 0x14, 0x12, 0x29, 0x24, 0x0b, 0xf0, 0x0a, 0xf6, 0x09, 0xf3, 0xf3, 0x0e, 0xfa, 0x0e, 0x00, 0xf4, 0xf3, 0xf6, 0xf3, 0xfa, 0xf6, 0xf4, 0xf7, 0xf4, 0xfc, 0x10, 0x0b, 0x02, 0xfe, 0xf3, 0x0b, 0x01, 0x04, 0x05, 0x0b, 0x0e, 0x04, 0x05, 0x0f, 0x03, 0x04, 0xf8, 0x03, 0xfb, 0x01, 0x01, 0xfe, 0x21, 0x1c, 0x27, 0x1f, 0x2c, 0x3d, 0x48, 0x41, 0xef, 0x11, 0x41, 0x29, 0x24, 0x24, 0x34, 0x2c, 0x2c, 0x10, 0xff, 0x06, 0xf6, 0x08, 0xf1, 0x09, 0xfc, 0x1b, 0x09, 0x08, 0x0b, 0x3a, 0x4d, 0x49, 0x5e, 0x4d, 0x49, 0x13, 0x1a, 0x0a, 0x10, 0x22, 0x12, 0x20, 0x2b, 0x37, 0x35, 0x25, 0x14, 0x0f, 0xfa, 0xfb, 0xf2, 0xf1, 0xe9, 0x1a, 0xf0, 0xff, 0x0c, 0x10, 0x28, 0x38, 0x2d, 0x46, 0x31, 0x3d, 0x26, 0x1d, 0x09, 0x16, 0x13, 0x14, 0x09, 0xfd, 0x0e, 0x18, 0x1c, 0xf4, 0xf7, 0x09, 0x0c, 0x01, 0xf0, 0x05, 0xd2, 0xe9, 0xf7, 0x01, 0x10, 0x12, 0x0f, 0x0b, 0x0b, 0x06, 0xf9, 0xe9, 0xfd, 0x0a, 0xf5, 0xf8, 0xf7, 0xf3, 0xff, 0xfd, 0xe9, 0xf9, 0x0b, 0x08, 0x05, 0x04, 0x05, 0xed, 0xd4, 0xd7, 0xf4, 0xfd, 0x11, 0x04, 0x0a, 0x0e, 0x02, 0x0d, 0x12, 0x08, 0x03, 0x0d, 0x01, 0x02, 0xee, 0xec, 0xec, 0xee, 0xe1, 0xda, 0xea, 0x04, 0xfa, 0xf5, 0x25, 0x01, 0xf1, 0xe6, 0xf4, 0x10, 0x21, 0x0c, 0x10, 0x26, 0x25, 0x16, 0x30, 0x21, 0x34, 0x23, 0x17, 0x0b, 0xf5, 0x11, 0xf0, 0xd3, 0xb5, 0xb5, 0xac, 0xe3, 0x11, 0xef, 0x27, 0x0e, 0xe6, 0xf8, 0x1d, 0x0d, 0x1a, 0x24, 0x27, 0x28, 0x2e, 0x2e, 0x27, 0x41, 0x30, 0x20, 0x21, 0x0a, 0x16, 0xff, 0x09, 0xe5, 0xd1, 0xbc, 0xac, 0xd8, 0x1d, 0x1f, 0x28, 0x01, 0xec, 0xf8, 0x0c, 0x18, 0x1f, 0x21, 0x2b, 0x30, 0x30, 0x29, 0x2d, 0x26, 0x20, 0x11, 0xfd, 0x00, 0xfb, 0xf8, 0xf9, 0xfc, 0xce, 0x99, 0xad, 0xe5, 0xfe, 0x29, 0x1a, 0x0f, 0x02, 0x15, 0x02, 0x07, 0x0b, 0x22, 0x1d, 0x12, 0x0f, 0x1d, 0x2a, 0x14, 0x02, 0x06, 0x01, 0x07, 0x0a, 0xf6, 0xff, 0xff, 0xda, 0xaa, 0xb1, 0x13, 0x04, 0x0d, 0x1a, 0xff, 0x05, 0x05, 0x19, 0x11, 0x15, 0x06, 0x0b, 0x16, 0x0a, 0x15, 0x14, 0xe8, 0xe4, 0xf4, 0x08, 0x06, 0x11, 0x05, 0x14, 0x0e, 0xe5, 0x9f, 0xb3, 0xf9, 0x10, 0x18, 0x1e, 0xfd, 0xee, 0x04, 0x0c, 0x0c, 0x08, 0x09, 0x02, 0xe9, 0xf0, 0xf9, 0xcb, 0xbe, 0xe7, 0x01, 0x0c, 0x1d, 0x1b, 0x31, 0x31, 0x1f, 0xf5, 0xa4, 0xa2, 0xe3, 0x11, 0x28, 0x1b, 0x00, 0xef, 0xf0, 0x13, 0xfd, 0xf7, 0xf5, 0xe8, 0xe1, 0xd6, 0xcc, 0xc1, 0xc1, 0xe8, 0xf9, 0x16, 0x08, 0x1a, 0x21, 0x27, 0x2d, 0x21, 0xd6, 0xc1, 0xee, 0xf5, 0xff, 0x16, 0x03, 0xe5, 0xfa, 0x07, 0x01, 0xf2, 0xfd, 0xf5, 0xe9, 0xc8, 0xc9, 0xd6, 0xe0, 0xef, 0x05, 0xf6, 0x0c, 0xf8, 0x13, 0x1f, 0x37, 0x39, 0x13, 0xf3, 0x0a, 0xef, 0xf6, 0x0f, 0xec, 0xe5, 0xfe, 0x03, 0x12, 0x0b, 0x02, 0x1b, 0x0b, 0xe6, 0xdd, 0xdf, 0xe6, 0xf9, 0xf9, 0x16, 0x15, 0x10, 0x1a, 0x1d, 0x35, 0x4a, 0x1d, 0x1b, 0x19, 0xed, 0xf4, 0xf2, 0xe7, 0xf6, 0x0f, 0x05, 0x16, 0x18, 0x0d, 0x18, 0x08, 0xf6, 0xd8, 0xe0, 0xd9, 0xf2, 0x01, 0x11, 0x0e, 0x17, 0x26, 0x0e, 0x1e, 0x2a, 0x2d, 0xf4, 0x13, 0x09, 0xf8, 0xec, 0xe4, 0xf0, 0x0c, 0x08, 0x28, 0x1b, 0x22, 0x36, 0x1e, 0xf6, 0xd1, 0xd7, 0xec, 0xf6, 0x09, 0x13, 0x1a, 0x09, 0x0b, 0x13, 0x09, 0x15, 0x32, 0x16, 0xfb, 0xf2, 0xf0, 0xe7, 0xdd, 0xfb, 0x11, 0x0b, 0x10, 0x16, 0x2b, 0x3a, 0x34, 0x12, 0xe7, 0xda, 0xe1, 0xf4, 0x11, 0x0d, 0x15, 0x0e, 0x0c, 0x19, 0xfd, 0x20, 0x64, 0x2d, 0x27, 0x18, 0x01, 0xf2, 0xc0, 0xf4, 0x0d, 0xf7, 0x12, 0x11, 0x28, 0x50, 0x2f, 0x09, 0xee, 0xf1, 0xff, 0x0d, 0x18, 0x16, 0x0b, 0x0a, 0x04, 0x15, 0x12, 0x22, 0x3e, 0x17, 0xe7, 0xe6, 0x24, 0x04, 0xbd, 0xf6, 0xf5, 0x07, 0x0f, 0x14, 0x21, 0x31, 0x32, 0x3c, 0x06, 0x10, 0xfe, 0x0e, 0x14, 0x0d, 0x05, 0x05, 0x0b, 0x14, 0x07, 0x08, 0x28, 0x01, 0xec, 0x0c, 0x0f, 0xfa, 0xd5, 0xf6, 0x17, 0xf7, 0x12, 0x11, 0x18, 0x26, 0x2d, 0x33, 0x2a, 0x20, 0x0d, 0x08, 0x08, 0xfe, 0x0e, 0x0d, 0x0d, 0xfc, 0x02, 0x02, 0x01, 0x0d, 0xf4, 0xf4, 0xf5, 0xef, 0xd5, 0xef, 0x0e, 0xf7, 0x09, 0xff, 0x09, 0x23, 0x20, 0x3d, 0x23, 0x29, 0x13, 0x0d, 0xf9, 0xfe, 0x04, 0xec, 0xe9, 0xff, 0x14, 0x10, 0x15, 0x35, 0xfd, 0xfd, 0x00, 0xe7, 0xd1, 0xdd, 0x01, 0x04, 0x0b, 0x17, 0x1a, 0x0e, 0x14, 0x2f, 0x21, 0x12, 0x1b, 0x02, 0xfd, 0xed, 0xf2, 0xf7, 0xf5, 0xfa, 0x04, 0xfc, 0x0a, 0xe0, 0xff, 0xf4, 0x08, 0xe4, 0xc3, 0xcc, 0x04, 0x11, 0x11, 0xfc, 0x08, 0xfa, 0x06, 0x0f, 0x0f, 0x07, 0x0c, 0xf3, 0xf5, 0xe8, 0xf2, 0xe6, 0xf7, 0x11, 0xfe, 0x05, 0xf3, 0xc9, 0xfb, 0xf9, 0xf2, 0xfb, 0xe6, 0xf6, 0xf9, 0xfd, 0xfb, 0x08, 0xf9, 0x02, 0xf7, 0x14, 0x05, 0x10, 0x0d, 0xf9, 0x0f, 0xf1, 0xf5, 0x09, 0x03, 0xf3, 0xf9, 0x23, 0x0a, 0x05, 0xfe, 0x0f, 0x02, 0xe6, 0x1c, 0x11, 0x13, 0xee, 0xf0, 0xfd, 0xef, 0xee, 0xfc, 0xfa, 0x08, 0x0b, 0x11, 0x1b, 0x0f, 0x06, 0x13, 0xef, 0x02, 0xeb, 0xec, 0x0b, 0x08, 0x18, 0xf7, 0xf1, 0xf8, 0x08, 0x18, 0x05, 0xf7, 0x15, 0x1f, 0x21, 0x15, 0x22, 0x15, 0x24, 0x22, 0x30, 0x22, 0x1c, 0x1f, 0x20, 0x28, 0xfc, 0xf3, 0x05, 0xf3, 0x22, 0x0c, 0xf5, 0xf8, 0x01, 0xf6, 0xfc, 0x0b, 0x13, 0x05, 0x0e, 0x07, 0x25, 0x21, 0x1d, 0x16, 0x08, 0x2a, 0x2c, 0x16, 0x17, 0x36, 0x26, 0x1c, 0x01, 0x0e, 0x08, 0x19, 0xf4, 0x0e, 0x0e, 0x05, 0x0c, 0x04, 0x03, 0xfc, 0x0e, 0xf7, 0x0c, 0xfb, 0xf9, 0xfb, 0xf7, 0xfe, 0xfb, 0xf6, 0x0a, 0xfa, 0x06, 0xfd, 0xf5, 0xf5, 0x04, 0x0a, 0xfd, 0xf1, 0x06, 0x0a, 0x06, 0xf8, 0x0e, 0x08, 0xf1, 0xf9, 0xf9, 0xfd, 0xdb, 0xe2, 0xfc, 0xf0, 0xec, 0xfc, 0xde, 0x0e, 0x1e, 0x06, 0x37, 0x15, 0xe5, 0xee, 0xd5, 0xd6, 0xe6, 0xee, 0x0c, 0x06, 0xf2, 0x00, 0x0c, 0xf5, 0xf1, 0xfe, 0xf6, 0x07, 0xeb, 0xdc, 0xfe, 0x09, 0xf5, 0x0b, 0x14, 0x02, 0x14, 0x07, 0x12, 0x20, 0x03, 0x03, 0xfc, 0xf5, 0xf0, 0xe2, 0x06, 0x0c, 0xfa, 0xf6, 0x0d, 0x05, 0xec, 0xe4, 0xe0, 0xf6, 0xe5, 0xf0, 0x0f, 0x14, 0x0c, 0x12, 0x07, 0x19, 0x0e, 0xf9, 0x03, 0x02, 0xf3, 0x06, 0xfb, 0x0a, 0xff, 0xe3, 0xe6, 0x10, 0xe6, 0x0d, 0xf7, 0xec, 0xf3, 0xd0, 0xe6, 0xfc, 0x03, 0x0d, 0x1a, 0x1b, 0x19, 0x24, 0x1e, 0x17, 0x20, 0x0a, 0x12, 0x1b, 0xf4, 0xfb, 0xef, 0xd7, 0xde, 0xc2, 0xdc, 0xeb, 0xf4, 0xdd, 0xfc, 0xf5, 0xf8, 0xe4, 0x05, 0xfb, 0x1e, 0x20, 0x21, 0x3a, 0x30, 0x2d, 0x1d, 0x1d, 0x2d, 0x3a, 0x39, 0x26, 0x26, 0x0e, 0x1a, 0x12, 0x06, 0x04, 0xe6, 0x01, 0xe3, 0xec, 0x0c, 0x16, 0xdf, 0xdc, 0x03, 0x06, 0x12, 0x19, 0x17, 0x14, 0x11, 0x23, 0x1d, 0x06, 0x0a, 0x01, 0x10, 0x0c, 0xf6, 0x02, 0x03, 0xfc, 0x26, 0x26, 0x19, 0x1e, 0x0c, 0xe3, 0xf1, 0xfa, 0xf4, 0xea, 0x26, 0x1f, 0x1d, 0x30, 0x21, 0x27, 0x1f, 0x13, 0x04, 0xf8, 0xe2, 0xe7, 0xe9, 0xd8, 0xef, 0xf6, 0xfb, 0x05, 0x14, 0x29, 0x0b, 0x06, 0x30, 0xff, 0x25, 0xf4, 0xf1, 0x04, 0x17, 0x11, 0x24, 0x18, 0x12, 0x31, 0x11, 0x12, 0xfc, 0xf5, 0xe3, 0xdb, 0xe4, 0xf7, 0x07, 0x0e, 0x02, 0x02, 0x0e, 0x0a, 0x02, 0x0b, 0x1f, 0xfd, 0xf9, 0xd2, 0xe1, 0xea, 0x0c, 0x16, 0x02, 0x13, 0x08, 0x1b, 0x21, 0x05, 0x00, 0xea, 0xc6, 0xd3, 0xd5, 0xf9, 0xfb, 0x0d, 0x14, 0x0b, 0x0b, 0x00, 0xdb, 0xd9, 0xe7, 0xe0, 0xf3, 0xcd, 0xe4, 0xf8, 0xfe, 0x0e, 0xf7, 0x10, 0x0a, 0x20, 0x07, 0x02, 0x01, 0xd4, 0xa6, 0xaa, 0xce, 0xf4, 0x06, 0x1b, 0xfb, 0x04, 0xff, 0xe7, 0xd4, 0xbc, 0xd9, 0x09, 0xdf, 0xc5, 0xc3, 0xe6, 0xf5, 0xfb, 0xec, 0xfd, 0xfc, 0x08, 0xff, 0xfc, 0xe0, 0xac, 0x8e, 0xb7, 0xde, 0xeb, 0xf6, 0x0f, 0xf7, 0xfd, 0xf7, 0xf5, 0xfc, 0x0a, 0x14, 0xf1, 0xe9, 0xe0, 0xca, 0xdf, 0xcc, 0xde, 0xe5, 0xe2, 0xfe, 0xfd, 0x04, 0x12, 0x12, 0xe5, 0xbb, 0xd9, 0xfd, 0xf0, 0x0e, 0x2c, 0x1e, 0x19, 0xf5, 0xe4, 0x42, 0x4d, 0x2d, 0xf3, 0x00, 0x04, 0xd9, 0xe1, 0xd3, 0xcf, 0xef, 0xe3, 0x03, 0x12, 0x32, 0x3c, 0x47, 0x0a, 0x00, 0x0f, 0x11, 0x24, 0x1b, 0x18, 0x2a, 0x0a, 0x0f, 0x1e, 0x33, 0x64, 0x59, 0x2d, 0x24, 0xef, 0xf6, 0xe7, 0xf1, 0xea, 0xf3, 0x12, 0x1c, 0x20, 0x35, 0x48, 0x4d, 0x39, 0x15, 0x0f, 0x1f, 0x2d, 0x2a, 0x2a, 0x1c, 0x03, 0xfc, 0xfa, 0x1a, 0x2f, 0x54, 0x1c, 0x06, 0xfa, 0x0c, 0x12, 0xfa, 0x00, 0x03, 0x1e, 0x34, 0x32, 0x31, 0x35, 0x44, 0x3b, 0x39, 0x36, 0x3e, 0x2d, 0x19, 0x17, 0xee, 0x03, 0xf7, 0x00, 0x19, 0x3d, 0x4b, 0x1c, 0xf1, 0xeb, 0x08, 0x1c, 0xf4, 0x0e, 0x17, 0x27, 0x2d, 0x36, 0x38, 0x3a, 0x54, 0x4c, 0x30, 0x30, 0x34, 0x1d, 0x21, 0x0c, 0x0c, 0x18, 0x0d, 0x1e, 0x1b, 0x58, 0x60, 0x29, 0xff, 0xeb, 0x0f, 0x1e, 0x08, 0xfa, 0x1d, 0x20, 0x2a, 0x34, 0x36, 0x43, 0x50, 0x44, 0x2f, 0x24, 0x27, 0x2e, 0x0e, 0x17, 0x05, 0x10, 0x0b, 0x1c, 0x27, 0x3d, 0x2d, 0x0d, 0xd7, 0xfb, 0x02, 0xff, 0x11, 0x23, 0x1b, 0x2e, 0x19, 0x34, 0x38, 0x44, 0x39, 0x32, 0x2c, 0x1e, 0x29, 0x1c, 0x16, 0x1d, 0x1a, 0x1f, 0x0e, 0x35, 0x39, 0x34, 0x08, 0x1a, 0xf1, 0xee, 0x0d, 0xf9, 0x13, 0x16, 0x0c, 0x13, 0x23, 0x21, 0x23, 0x18, 0x25, 0x1e, 0x22, 0x1f, 0x21, 0x34, 0x24, 0x11, 0x17, 0x1d, 0x1f, 0x2e, 0x21, 0x43, 0x35, 0x12, 0xf8, 0x0b, 0x23, 0x06, 0x2a, 0x08, 0x12, 0x1e, 0x14, 0x13, 0x01, 0x22, 0x20, 0xfd, 0x14, 0x28, 0x25, 0x31, 0x23, 0x22, 0x27, 0x25, 0x34, 0x24, 0x36, 0x0b, 0x28, 0xea, 0xfe, 0x07, 0x1b, 0x28, 0x24, 0x0c, 0x0d, 0x0f, 0x02, 0x16, 0x0e, 0x0e, 0x0b, 0x1a, 0x18, 0x22, 0x11, 0x26, 0x2c, 0x3e, 0x28, 0x3b, 0x37, 0x42, 0x0a, 0x19, 0x3a, 0xfb, 0xe6, 0x01, 0x13, 0x22, 0x18, 0x01, 0x00, 0x17, 0x14, 0x1e, 0x22, 0x26, 0x19, 0x33, 0x2d, 0x1c, 0x11, 0x2f, 0x3b, 0x4c, 0x3e, 0x48, 0x3c, 0x1a, 0xfb, 0x0d, 0xf0, 0xf6, 0xf8, 0xf9, 0x26, 0x00, 0xec, 0xd7, 0xf0, 0x01, 0x14, 0x1a, 0x23, 0x33, 0x2e, 0x28, 0x2e, 0x29, 0x2d, 0x28, 0x25, 0x3b, 0x30, 0x32, 0x20, 0x04, 0xee, 0x08, 0xe7, 0x06, 0x0e, 0x01, 0x15, 0xe8, 0xbf, 0xb7, 0xb8, 0xd0, 0xef, 0x1a, 0x0d, 0x18, 0x12, 0x0b, 0x23, 0x1b, 0x05, 0xf7, 0x0f, 0xf7, 0xe7, 0xeb, 0xf9, 0xf3, 0x0a, 0x2c, 0x13, 0x01, 0xfc, 0xfc, 0x09, 0xf1, 0xd1, 0xb0, 0xca, 0xc2, 0xb5, 0xb5, 0xd3, 0xc7, 0xb7, 0xc7, 0xd1, 0xde, 0xe2, 0xd7, 0xde, 0xd1, 0xdf, 0xc1, 0xea, 0xe8, 0xda, 0x16, 0x0b, 0x08, 0xf6, 0x07, 0x09, 0xf3, 0x01, 0xf4, 0xc1, 0xb7, 0x9c, 0x9d, 0x9b, 0xad, 0x9c, 0x91, 0x87, 0x9c, 0x8c, 0x99, 0x94, 0xad, 0xc0, 0xb7, 0xd4, 0xef, 0xf5, 0xff, 0x08, 0xf8, 0x09, 0x0f, 0x0b, 0x04, 0xea, 0xec, 0xdb, 0xe8, 0xca, 0xba, 0xb7, 0xd3, 0xd1, 0xa5, 0xa4, 0xb0, 0xb7, 0x97, 0xc8, 0xc8, 0xd6, 0xd0, 0xe3, 0xdf, 0xf6, 0x04, 0x06, 0xf3, 0xaa, 0xfe, 0xff, 0xff, 0x04, 0x00, 0x00, 0x00, 0x20, 0x00, 0x00, 0x00, 0xe1, 0x2b, 0x00, 0x00, 0x21, 0x2a, 0x00, 0x00, 0xdb, 0xd2, 0xff, 0xff, 0x04, 0x16, 0x00, 0x00, 0xce, 0x22, 0x00, 0x00, 0x92, 0xf4, 0xff, 0xff, 0x39, 0x20, 0x00, 0x00, 0x1c, 0x01, 0x00, 0x00, 0xd6, 0xfe, 0xff, 0xff, 0x04, 0x00, 0x00, 0x00, 0x50, 0x00, 0x00, 0x00, 0xd3, 0x12, 0xf5, 0xd9, 0x89, 0x18, 0x58, 0x28, 0xc3, 0x93, 0x63, 0x3c, 0x4e, 0xdc, 0x9e, 0x11, 0x31, 0x9a, 0x19, 0x17, 0xee, 0xc8, 0x0e, 0x5b, 0x6a, 0x17, 0x3b, 0x14, 0xdf, 0x29, 0xba, 0x14, 0x88, 0x55, 0x99, 0x14, 0x04, 0xa9, 0xb1, 0x51, 0x3b, 0x31, 0xdb, 0x8e, 0x16, 0x63, 0xcf, 0x21, 0xb0, 0x22, 0x1f, 0xae, 0x42, 0x88, 0x31, 0x25, 0xee, 0x0a, 0xed, 0x7f, 0xd2, 0xf7, 0x23, 0xe3, 0x89, 0xfb, 0x32, 0xfb, 0x13, 0x48, 0xdb, 0x32, 0xbd, 0x37, 0xbc, 0x41, 0x55, 0xda, 0x07, 0xf5, 0x32, 0xff, 0xff, 0xff, 0x04, 0x00, 0x00, 0x00, 0x28, 0x00, 0x00, 0x00, 0x56, 0xff, 0xff, 0xff, 0x60, 0x01, 0x00, 0x00, 0x28, 0x00, 0x00, 0x00, 0x19, 0xff, 0xff, 0xff, 0xd8, 0x00, 0x00, 0x00, 0xd2, 0x01, 0x00, 0x00, 0x7a, 0xff, 0xff, 0xff, 0x84, 0x00, 0x00, 0x00, 0x37, 0xfe, 0xff, 0xff, 0x9e, 0xff, 0xff, 0xff, 0x66, 0xff, 0xff, 0xff, 0x04, 0x00, 0x00, 0x00, 0x08, 0x00, 0x00, 0x00, 0xff, 0xff, 0xff, 0xff, 0x10, 0x03, 0x00, 0x00, 0x54, 0xfa, 0xff, 0xff, 0x58, 0xfa, 0xff, 0xff, 0x0f, 0x00, 0x00, 0x00, 0x4d, 0x4c, 0x49, 0x52, 0x20, 0x43, 0x6f, 0x6e, 0x76, 0x65, 0x72, 0x74, 0x65, 0x64, 0x2e, 0x00, 0x01, 0x00, 0x00, 0x00, 0x14, 0x00, 0x00, 0x00, 0x00, 0x00, 0x0e, 0x00, 0x18, 0x00, 0x14, 0x00, 0x10, 0x00, 0x0c, 0x00, 0x08, 0x00, 0x04, 0x00, 0x0e, 0x00, 0x00, 0x00, 0x14, 0x00, 0x00, 0x00, 0x1c, 0x00, 0x00, 0x00, 0x14, 0x01, 0x00, 0x00, 0x18, 0x01, 0x00, 0x00, 0x1c, 0x01, 0x00, 0x00, 0x04, 0x00, 0x00, 0x00, 0x6d, 0x61, 0x69, 0x6e, 0x00, 0x00, 0x00, 0x00, 0x04, 0x00, 0x00, 0x00, 0xd8, 0x00, 0x00, 0x00, 0x88, 0x00, 0x00, 0x00, 0x40, 0x00, 0x00, 0x00, 0x04, 0x00, 0x00, 0x00, 0x92, 0xff, 0xff, 0xff, 0x1c, 0x00, 0x00, 0x00, 0x00, 0x00, 0x00, 0x09, 0x1c, 0x00, 0x00, 0x00, 0x20, 0x00, 0x00, 0x00, 0x02, 0x00, 0x00, 0x00, 0x00, 0x00, 0x06, 0x00, 0x08, 0x00, 0x04, 0x00, 0x06, 0x00, 0x00, 0x00, 0x00, 0x00, 0x80, 0x3f, 0x01, 0x00, 0x00, 0x00, 0x09, 0x00, 0x00, 0x00, 0x01, 0x00, 0x00, 0x00, 0x08, 0x00, 0x00, 0x00, 0xca, 0xff, 0xff, 0xff, 0x14, 0x00, 0x00, 0x00, 0x00, 0x00, 0x00, 0x08, 0x10, 0x00, 0x00, 0x00, 0x14, 0x00, 0x00, 0x00, 0x01, 0x00, 0x00, 0x00, 0x10, 0xfb, 0xff, 0xff, 0x01, 0x00, 0x00, 0x00, 0x08, 0x00, 0x00, 0x00, 0x03, 0x00, 0x00, 0x00, 0x07, 0x00, 0x00, 0x00, 0x03, 0x00, 0x00, 0x00, 0x02, 0x00, 0x00, 0x00, 0x00, 0x00, 0x0e, 0x00, 0x1a, 0x00, 0x14, 0x00, 0x10, 0x00, 0x0c, 0x00, 0x0b, 0x00, 0x04, 0x00, 0x0e, 0x00, 0x00, 0x00, 0x1c, 0x00, 0x00, 0x00, 0x00, 0x00, 0x00, 0x08, 0x1c, 0x00, 0x00, 0x00, 0x20, 0x00, 0x00, 0x00, 0x01, 0x00, 0x00, 0x00, 0x00, 0x00, 0x06, 0x00, 0x08, 0x00, 0x07, 0x00, 0x06, 0x00, 0x00, 0x00, 0x00, 0x00, 0x00, 0x01, 0x01, 0x00, 0x00, 0x00, 0x07, 0x00, 0x00, 0x00, 0x03, 0x00, 0x00, 0x00, 0x06, 0x00, 0x00, 0x00, 0x05, 0x00, 0x00, 0x00, 0x04, 0x00, 0x00, 0x00, 0x00, 0x00, 0x0a, 0x00, 0x0c, 0x00, 0x00, 0x00, 0x08, 0x00, 0x04, 0x00, 0x0a, 0x00, 0x00, 0x00, 0x08, 0x00, 0x00, 0x00, 0x0c, 0x00, 0x00, 0x00, 0x01, 0x00, 0x00, 0x00, 0x06, 0x00, 0x00, 0x00, 0x02, 0x00, 0x00, 0x00, 0x00, 0x00, 0x00, 0x00, 0x01, 0x00, 0x00, 0x00, 0x01, 0x00, 0x00, 0x00, 0x09, 0x00, 0x00, 0x00, 0x01, 0x00, 0x00, 0x00, 0x00, 0x00, 0x00, 0x00, 0x0a, 0x00, 0x00, 0x00, 0x8c, 0x04, 0x00, 0x00, 0x24, 0x04, 0x00, 0x00, 0x90, 0x03, 0x00, 0x00, 0x24, 0x03, 0x00, 0x00, 0xb0, 0x02, 0x00, 0x00, 0x44, 0x02, 0x00, 0x00, 0xc8, 0x01, 0x00, 0x00, 0x1c, 0x01, 0x00, 0x00, 0x80, 0x00, 0x00, 0x00, 0x04, 0x00, 0x00, 0x00, 0xb2, 0xfb, 0xff, 0xff, 0x00, 0x00, 0x00, 0x01, 0x18, 0x00, 0x00, 0x00, 0x20, 0x00, 0x00, 0x00, 0x3c, 0x00, 0x00, 0x00, 0x0a, 0x00, 0x00, 0x00, 0x00, 0x00, 0x00, 0x09, 0x50, 0x00, 0x00, 0x00, 0x02, 0x00, 0x00, 0x00, 0xff, 0xff, 0xff, 0xff, 0x0a, 0x00, 0x00, 0x00, 0x94, 0xfb, 0xff, 0xff, 0x08, 0x00, 0x00, 0x00, 0x10, 0x00, 0x00, 0x00, 0x01, 0x00, 0x00, 0x00, 0x80, 0xff, 0xff, 0xff, 0xff, 0xff, 0xff, 0xff, 0x01, 0x00, 0x00, 0x00, 0x00, 0x00, 0x80, 0x3b, 0x19, 0x00, 0x00, 0x00, 0x53, 0x74, 0x61, 0x74, 0x65, 0x66, 0x75, 0x6c, 0x50, 0x61, 0x72, 0x74, 0x69, 0x74, 0x69, 0x6f, 0x6e, 0x65, 0x64, 0x43, 0x61, 0x6c, 0x6c, 0x3a, 0x30, 0x00, 0x00, 0x00, 0x02, 0x00, 0x00, 0x00, 0x01, 0x00, 0x00, 0x00, 0x0a, 0x00, 0x00, 0x00, 0x2a, 0xfc, 0xff, 0xff, 0x00, 0x00, 0x00, 0x01, 0x18, 0x00, 0x00, 0x00, 0x20, 0x00, 0x00, 0x00, 0x40, 0x00, 0x00, 0x00, 0x09, 0x00, 0x00, 0x00, 0x00, 0x00, 0x00, 0x09, 0x70, 0x00, 0x00, 0x00, 0x02, 0x00, 0x00, 0x00, 0xff, 0xff, 0xff, 0xff, 0x0a, 0x00, 0x00, 0x00, 0x0c, 0xfc, 0xff, 0xff, 0x08, 0x00, 0x00, 0x00, 0x14, 0x00, 0x00, 0x00, 0x01, 0x00, 0x00, 0x00, 0xfb, 0xff, 0xff, 0xff, 0xff, 0xff, 0xff, 0xff, 0x00, 0x00, 0x00, 0x00, 0x01, 0x00, 0x00, 0x00, 0x16, 0x31, 0x6a, 0x3e, 0x34, 0x00, 0x00, 0x00, 0x73, 0x65, 0x71, 0x75, 0x65, 0x6e, 0x74, 0x69, 0x61, 0x6c, 0x2f, 0x64, 0x65, 0x6e, 0x73, 0x65, 0x5f, 0x31, 0x2f, 0x4d, 0x61, 0x74, 0x4d, 0x75, 0x6c, 0x3b, 0x73, 0x65, 0x71, 0x75, 0x65, 0x6e, 0x74, 0x69, 0x61, 0x6c, 0x2f, 0x64, 0x65, 0x6e, 0x73, 0x65, 0x5f, 0x31, 0x2f, 0x42, 0x69, 0x61, 0x73, 0x41, 0x64, 0x64, 0x00, 0x00, 0x00, 0x00, 0x02, 0x00, 0x00, 0x00, 0x01, 0x00, 0x00, 0x00, 0x0a, 0x00, 0x00, 0x00, 0xc2, 0xfc, 0xff, 0xff, 0x00, 0x00, 0x00, 0x01, 0x18, 0x00, 0x00, 0x00, 0x20, 0x00, 0x00, 0x00, 0x40, 0x00, 0x00, 0x00, 0x08, 0x00, 0x00, 0x00, 0x00, 0x00, 0x00, 0x09, 0x80, 0x00, 0x00, 0x00, 0x02, 0x00, 0x00, 0x00, 0xff, 0xff, 0xff, 0xff, 0x08, 0x00, 0x00, 0x00, 0xa4, 0xfc, 0xff, 0xff, 0x08, 0x00, 0x00, 0x00, 0x14, 0x00, 0x00, 0x00, 0x01, 0x00, 0x00, 0x00, 0x80, 0xff, 0xff, 0xff, 0xff, 0xff, 0xff, 0xff, 0x00, 0x00, 0x00, 0x00, 0x01, 0x00, 0x00, 0x00, 0xd5, 0x88, 0x18, 0x3e, 0x46, 0x00, 0x00, 0x00, 0x73, 0x65, 0x71, 0x75, 0x65, 0x6e, 0x74, 0x69, 0x61, 0x6c, 0x2f, 0x64, 0x65, 0x6e, 0x73, 0x65, 0x2f, 0x4d, 0x61, 0x74, 0x4d, 0x75, 0x6c, 0x3b, 0x73, 0x65, 0x71, 0x75, 0x65, 0x6e, 0x74, 0x69, 0x61, 0x6c, 0x2f, 0x64, 0x65, 0x6e, 0x73, 0x65, 0x2f, 0x52, 0x65, 0x6c, 0x75, 0x3b, 0x73, 0x65, 0x71, 0x75, 0x65, 0x6e, 0x74, 0x69, 0x61, 0x6c, 0x2f, 0x64, 0x65, 0x6e, 0x73, 0x65, 0x2f, 0x42, 0x69, 0x61, 0x73, 0x41, 0x64, 0x64, 0x00, 0x00, 0x02, 0x00, 0x00, 0x00, 0x01, 0x00, 0x00, 0x00, 0x08, 0x00, 0x00, 0x00, 0x6a, 0xfd, 0xff, 0xff, 0x00, 0x00, 0x00, 0x01, 0x18, 0x00, 0x00, 0x00, 0x20, 0x00, 0x00, 0x00, 0x3c, 0x00, 0x00, 0x00, 0x07, 0x00, 0x00, 0x00, 0x00, 0x00, 0x00, 0x09, 0x50, 0x00, 0x00, 0x00, 0x02, 0x00, 0x00, 0x00, 0xff, 0xff, 0xff, 0xff, 0x10, 0x03, 0x00, 0x00, 0x4c, 0xfd, 0xff, 0xff, 0x08, 0x00, 0x00, 0x00, 0x10, 0x00, 0x00, 0x00, 0x01, 0x00, 0x00, 0x00, 0x80, 0xff, 0xff, 0xff, 0xff, 0xff, 0xff, 0xff, 0x01, 0x00, 0x00, 0x00, 0x81, 0x80, 0x80, 0x3b, 0x1a, 0x00, 0x00, 0x00, 0x73, 0x65, 0x71, 0x75, 0x65, 0x6e, 0x74, 0x69, 0x61, 0x6c, 0x2f, 0x66, 0x6c, 0x61, 0x74, 0x74, 0x65, 0x6e, 0x2f, 0x52, 0x65, 0x73, 0x68, 0x61, 0x70, 0x65, 0x00, 0x00, 0x02, 0x00, 0x00, 0x00, 0x01, 0x00, 0x00, 0x00, 0x10, 0x03, 0x00, 0x00, 0x46, 0xfe, 0xff, 0xff, 0x00, 0x00, 0x00, 0x01, 0x14, 0x00, 0x00, 0x00, 0x34, 0x00, 0x00, 0x00, 0x06, 0x00, 0x00, 0x00, 0x00, 0x00, 0x00, 0x09, 0x44, 0x00, 0x00, 0x00, 0xb4, 0xfd, 0xff, 0xff, 0x08, 0x00, 0x00, 0x00, 0x14, 0x00, 0x00, 0x00, 0x01, 0x00, 0x00, 0x00, 0x00, 0x00, 0x00, 0x00, 0x00, 0x00, 0x00, 0x00, 0x00, 0x00, 0x00, 0x00, 0x01, 0x00, 0x00, 0x00, 0xef, 0x11, 0xbf, 0x3b, 0x17, 0x00, 0x00, 0x00, 0x73, 0x65, 0x71, 0x75, 0x65, 0x6e, 0x74, 0x69, 0x61, 0x6c, 0x2f, 0x64, 0x65, 0x6e, 0x73, 0x65, 0x2f, 0x4d, 0x61, 0x74, 0x4d, 0x75, 0x6c, 0x00, 0x02, 0x00, 0x00, 0x00, 0x08, 0x00, 0x00, 0x00, 0x10, 0x03, 0x00, 0x00, 0xae, 0xfe, 0xff, 0xff, 0x00, 0x00, 0x00, 0x01, 0x14, 0x00, 0x00, 0x00, 0x30, 0x00, 0x00, 0x00, 0x05, 0x00, 0x00, 0x00, 0x00, 0x00, 0x00, 0x02, 0x50, 0x00, 0x00, 0x00, 0x1c, 0xfe, 0xff, 0xff, 0x08, 0x00, 0x00, 0x00, 0x10, 0x00, 0x00, 0x00, 0x01, 0x00, 0x00, 0x00, 0x00, 0x00, 0x00, 0x00, 0x00, 0x00, 0x00, 0x00, 0x01, 0x00, 0x00, 0x00, 0xc1, 0xd1, 0xbf, 0x37, 0x27, 0x00, 0x00, 0x00, 0x73, 0x65, 0x71, 0x75, 0x65, 0x6e, 0x74, 0x69, 0x61, 0x6c, 0x2f, 0x64, 0x65, 0x6e, 0x73, 0x65, 0x2f, 0x42, 0x69, 0x61, 0x73, 0x41, 0x64, 0x64, 0x2f, 0x52, 0x65, 0x61, 0x64, 0x56, 0x61, 0x72, 0x69, 0x61, 0x62, 0x6c, 0x65, 0x4f, 0x70, 0x00, 0x01, 0x00, 0x00, 0x00, 0x08, 0x00, 0x00, 0x00, 0x1e, 0xff, 0xff, 0xff, 0x00, 0x00, 0x00, 0x01, 0x14, 0x00, 0x00, 0x00, 0x30, 0x00, 0x00, 0x00, 0x04, 0x00, 0x00, 0x00, 0x00, 0x00, 0x00, 0x09, 0x44, 0x00, 0x00, 0x00, 0x8c, 0xfe, 0xff, 0xff, 0x08, 0x00, 0x00, 0x00, 0x10, 0x00, 0x00, 0x00, 0x01, 0x00, 0x00, 0x00, 0x00, 0x00, 0x00, 0x00, 0x00, 0x00, 0x00, 0x00, 0x01, 0x00, 0x00, 0x00, 0xf0, 0x83, 0x0e, 0x3c, 0x19, 0x00, 0x00, 0x00, 0x73, 0x65, 0x71, 0x75, 0x65, 0x6e, 0x74, 0x69, 0x61, 0x6c, 0x2f, 0x64, 0x65, 0x6e, 0x73, 0x65, 0x5f, 0x31, 0x2f, 0x4d, 0x61, 0x74, 0x4d, 0x75, 0x6c, 0x00, 0x00, 0x00, 0x02, 0x00, 0x00, 0x00, 0x0a, 0x00, 0x00, 0x00, 0x08, 0x00, 0x00, 0x00, 0x86, 0xff, 0xff, 0xff, 0x00, 0x00, 0x00, 0x01, 0x14, 0x00, 0x00, 0x00, 0x34, 0x00, 0x00, 0x00, 0x03, 0x00, 0x00, 0x00, 0x00, 0x00, 0x00, 0x02, 0x58, 0x00, 0x00, 0x00, 0xf4, 0xfe, 0xff, 0xff, 0x08, 0x00, 0x00, 0x00, 0x14, 0x00, 0x00, 0x00, 0x01, 0x00, 0x00, 0x00, 0x00, 0x00, 0x00, 0x00, 0x00, 0x00, 0x00, 0x00, 0x00, 0x00, 0x00, 0x00, 0x01, 0x00, 0x00, 0x00, 0x06, 0xd5, 0xa9, 0x3a, 0x29, 0x00, 0x00, 0x00, 0x73, 0x65, 0x71, 0x75, 0x65, 0x6e, 0x74, 0x69, 0x61, 0x6c, 0x2f, 0x64, 0x65, 0x6e, 0x73, 0x65, 0x5f, 0x31, 0x2f, 0x42, 0x69, 0x61, 0x73, 0x41, 0x64, 0x64, 0x2f, 0x52, 0x65, 0x61, 0x64, 0x56, 0x61, 0x72, 0x69, 0x61, 0x62, 0x6c, 0x65, 0x4f, 0x70, 0x00, 0x00, 0x00, 0x01, 0x00, 0x00, 0x00, 0x0a, 0x00, 0x00, 0x00, 0x00, 0x00, 0x16, 0x00, 0x1c, 0x00, 0x18, 0x00, 0x17, 0x00, 0x10, 0x00, 0x0c, 0x00, 0x08, 0x00, 0x00, 0x00, 0x00, 0x00, 0x00, 0x00, 0x07, 0x00, 0x16, 0x00, 0x00, 0x00, 0x00, 0x00, 0x00, 0x01, 0x18, 0x00, 0x00, 0x00, 0x18, 0x00, 0x00, 0x00, 0x02, 0x00, 0x00, 0x00, 0x00, 0x00, 0x00, 0x02, 0x2c, 0x00, 0x00, 0x00, 0x04, 0x00, 0x04, 0x00, 0x04, 0x00, 0x00, 0x00, 0x18, 0x00, 0x00, 0x00, 0x73, 0x65, 0x71, 0x75, 0x65, 0x6e, 0x74, 0x69, 0x61, 0x6c, 0x2f, 0x66, 0x6c, 0x61, 0x74, 0x74, 0x65, 0x6e, 0x2f, 0x43, 0x6f, 0x6e, 0x73, 0x74, 0x00, 0x00, 0x00, 0x00, 0x01, 0x00, 0x00, 0x00, 0x02, 0x00, 0x00, 0x00, 0x00, 0x00, 0x16, 0x00, 0x20, 0x00, 0x1c, 0x00, 0x1b, 0x00, 0x14, 0x00, 0x10, 0x00, 0x0c, 0x00, 0x00, 0x00, 0x00, 0x00, 0x08, 0x00, 0x07, 0x00, 0x16, 0x00, 0x00, 0x00, 0x00, 0x00, 0x00, 0x01, 0x18, 0x00, 0x00, 0x00, 0x34, 0x00, 0x00, 0x00, 0x54, 0x00, 0x00, 0x00, 0x01, 0x00, 0x00, 0x00, 0x00, 0x00, 0x00, 0x09, 0x6c, 0x00, 0x00, 0x00, 0x04, 0x00, 0x00, 0x00, 0xff, 0xff, 0xff, 0xff, 0x1c, 0x00, 0x00, 0x00, 0x1c, 0x00, 0x00, 0x00, 0x01, 0x00, 0x00, 0x00, 0x0c, 0x00, 0x0c, 0x00, 0x00, 0x00, 0x00, 0x00, 0x08, 0x00, 0x04, 0x00, 0x0c, 0x00, 0x00, 0x00, 0x08, 0x00, 0x00, 0x00, 0x14, 0x00, 0x00, 0x00, 0x01, 0x00, 0x00, 0x00, 0x80, 0xff, 0xff, 0xff, 0xff, 0xff, 0xff, 0xff, 0x00, 0x00, 0x00, 0x00, 0x01, 0x00, 0x00, 0x00, 0x81, 0x80, 0x80, 0x3b, 0x1f, 0x00, 0x00, 0x00, 0x73, 0x65, 0x72, 0x76, 0x69, 0x6e, 0x67, 0x5f, 0x64, 0x65, 0x66, 0x61, 0x75, 0x6c, 0x74, 0x5f, 0x66, 0x6c, 0x61, 0x74, 0x74, 0x65, 0x6e, 0x5f, 0x69, 0x6e, 0x70, 0x75, 0x74, 0x3a, 0x30, 0x00, 0x04, 0x00, 0x00, 0x00, 0x01, 0x00, 0x00, 0x00, 0x1c, 0x00, 0x00, 0x00, 0x1c, 0x00, 0x00, 0x00, 0x01, 0x00, 0x00, 0x00, 0x03, 0x00, 0x00, 0x00, 0x44, 0x00, 0x00, 0x00, 0x24, 0x00, 0x00, 0x00, 0x04, 0x00, 0x00, 0x00, 0xf0, 0xff, 0xff, 0xff, 0x19, 0x00, 0x00, 0x00, 0x02, 0x00, 0x00, 0x00, 0x00, 0x00, 0x00, 0x19, 0x0c, 0x00, 0x10, 0x00, 0x0f, 0x00, 0x00, 0x00, 0x08, 0x00, 0x04, 0x00, 0x0c, 0x00, 0x00, 0x00, 0x09, 0x00, 0x00, 0x00, 0x04, 0x00, 0x00, 0x00, 0x00, 0x00, 0x00, 0x09, 0x0c, 0x00, 0x0c, 0x00, 0x0b, 0x00, 0x00, 0x00, 0x00, 0x00, 0x04, 0x00, 0x0c, 0x00, 0x00, 0x00, 0x16, 0x00, 0x00, 0x00, 0x00, 0x00, 0x00, 0x16
};
const int mnist_quantized_model_tflite_len = 8736;

#endif // MNIST_MODEL_DATA_H_
